<unk>	0
<s>	0
</s>	0
▁स	-0
को	-1
मा	-2
का	-3
र्	-4
▁प	-5
्र	-6
न्	-7
▁ग	-8
ने	-9
▁र	-10
▁।	-11
ला	-12
्य	-13
ले	-14
▁ब	-15
▁भ	-16
▁व	-17
▁अ	-18
▁क	-19
▁ह	-20
▁न	-21
ार	-22
▁म	-23
▁छ	-24
▁त	-25
▁द	-26
ाल	-27
▁प्र	-28
▁ज	-29
▁आ	-30
स्	-31
ति	-32
क्	-33
ता	-34
ना	-35
▁का	-36
यो	-37
▁उ	-38
ान	-39
▁वि	-40
एको	-41
नि	-42
त्र	-43
▁गर	-44
म्	-45
▁गर्	-46
हर	-47
नु	-48
लाई	-49
ेको	-50
वा	-51
िक	-52
▁य	-53
रा	-54
ित	-55
था	-56
▁च	-57
▁हु	-58
▁मा	-59
पाल	-60
▁श	-61
▁नि	-62
▁ए	-63
त्	-64
▁ला	-65
या	-66
▁रा	-67
्या	-68
▁ने	-69
न्द	-70
▁ल	-71
▁ख	-72
री	-73
ल्	-74
▁सा	-75
क्ष	-76
हि	-77
▁सं	-78
▁स्	-79
ुर	-80
बा	-81
ेर	-82
▁पनि	-83
..	-84
ेश	-85
▁नेपाल	-86
ाउ	-87
▁दि	-88
▁सम	-89
ष्	-90
▁लाग	-91
हरु	-92
िका	-93
दै	-94
▁थ	-95
हा	-96
▁२	-97
▁फ	-98
र्य	-99
नी	-100
दा	-101
न्छ	-102
▁हो	-103
पा	-104
एका	-105
▁पा	-106
स्त	-107
ेका	-108
रि	-109
▁१	-110
बाट	-111
▁भएको	-112
द्	-113
▁सम्	-114
ष्ट	-115
▁त्य	-116
▁थि	-117
▁रह	-118
ाम	-119
वि	-120
ेख	-121
न्त्र	-122
▁भने	-123
▁लागि	-124
▁छन्	-125
कार	-126
न्त	-127
▁निर्	-128
हरू	-129
सा	-130
भा	-131
▁के	-132
▁पु	-133
ीय	-134
▁एक	-135
रण	-136
▁ध	-137
लो	-138
▁गरि	-139
▁घ	-140
▁कार्य	-141
िय	-142
ेल	-143
▁सु	-144
▁यस	-145
क्र	-146
्न	-147
ही	-148
▁कु	-149
र्ष	-150
▁क्	-151
▁यो	-152
▁गर्ने	-153
्च	-154
गर	-155
▁गर्न	-156
▁ट	-157
▁बा	-158
ौं	-159
छि	-160
▁तथा	-161
ारी	-162
स्था	-163
▁गरेको	-164
गा	-165
देश	-166
▁व्य	-167
ेखि	-168
▁अध	-169
ली	-170
...	-171
टी	-172
▁आफ	-173
▁ड	-174
▁क्ष	-175
सी	-176
ठमा	-177
▁बि	-178
▁प्रति	-179
धान	-180
▁को	-181
र्व	-182
टा	-183
▁काठमा	-184
िल्	-185
िन	-186
▁राज	-187
्व	-188
द्ध	-189
ण्	-190
▁सर	-191
्रो	-192
▁काठमाड	-193
▁मु	-194
ँग	-195
योग	-196
न्न	-197
▁रु	-198
की	-199
पर्	-200
ेत्र	-201
▁अनु	-202
ष्ट्र	-203
ालय	-204
▁‘	-205
▁दु	-206
भि	-207
▁हुने	-208
म्म	-209
▁सह	-210
▁बढ	-211
ङ्	-212
तिक	-213
पछि	-214
▁सि	-215
▁वा	-216
▁क्षेत्र	-217
र्थ	-218
▁उप	-219
▁ठ	-220
ाउँ	-221
रह	-222
सि	-223
▁२०	-224
ण्ड	-225
रो	-226
नको	-227
▁वर्ष	-228
बार	-229
ंग	-230
▁थियो	-231
एर	-232
कि	-233
▁समा	-234
▁विश	-235
प्र	-236
▁बता	-237
डि	-238
ुरु	-239
ती	-240
ेट	-241
▁रहेको	-242
▁तर	-243
स्थ	-244
न्ध	-245
पमा	-246
▁नै	-247
▁(	-248
▁त्यस	-249
▁पू	-250
सार	-251
याँ	-252
वस्था	-253
प्	-254
सँग	-255
नमा	-256
ाइ	-257
कारी	-258
मु	-259
▁भन्	-260
क्त	-261
▁स्थ	-262
▁से	-263
चार	-264
ँदै	-265
▁इ	-266
न्य	-267
न्दा	-268
▁काम	-269
▁परि	-270
िम	-271
िल्ला	-272
▁सरकार	-273
न्द्र	-274
न्त्री	-275
नले	-276
ेस	-277
▁हाम	-278
दी	-279
जा	-280
द्य	-281
▁जिल्ला	-282
▁नेपाली	-283
नुपर्	-284
▁काठमाडौं	-285
▁पार्	-286
क्ति	-287
▁महि	-288
हाँ	-289
जना	-290
जार	-291
ानी	-292
▁बना	-293
बै	-294
डा	-295
पालिका	-296
▁प्रा	-297
▁बु	-298
हु	-299
र्म	-300
ेत	-301
क्रम	-302
▁लि	-303
▁मि	-304
▁जा	-305
नुभ	-306
म्प	-307
धार	-308
क्षा	-309
ोज	-310
▁भएका	-311
लि	-312
्रा	-313
▁थिए	-314
हिले	-315
ञ्च	-316
स्ता	-317
▁सबै	-318
ध्य	-319
▁जन	-320
धि	-321
माण	-322
र्ण	-323
्ने	-324
▁ना	-325
हो	-326
▁राष्ट्र	-327
▁कि	-328
▁मात्र	-329
सम्म	-330
▁स्थान	-331
उने	-332
▁देखि	-333
▁नगर	-334
▁सो	-335
▁भए	-336
▁३	-337
▁हुन्छ	-338
▁पर्	-339
▁गरिएको	-340
▁जना	-341
▁उत्	-342
उन	-343
▁गरेका	-344
▁बै	-345
दि	-346
शा	-347
ीले	-348
वार	-349
निक	-350
ैन	-351
▁गर्दै	-352
कै	-353
कास	-354
नै	-355
बन्ध	-356
▁अन्त	-357
▁गरी	-358
त्य	-359
ेला	-360
▁पो	-361
▁भन्ने	-362
रु	-363
छन्	-364
मान	-365
▁भा	-366
देखि	-367
▁मह	-368
▁आफ्न	-369
मन्त्री	-370
▁हि	-371
्री	-372
रमा	-373
▁पार्टी	-374
पुर	-375
गत	-376
▁५	-377
टक	-378
▁विकास	-379
सक	-380
▁राख	-381
ारत	-382
कृ	-383
ोग	-384
▁दिन	-385
▁समय	-386
▁पहि	-387
▁स्व	-388
▁अध्य	-389
▁कार्यक्रम	-390
ोक	-391
टर	-392
▁चा	-393
भाव	-394
▁सक्	-395
▁पर	-396
मि	-397
ोल	-398
त्व	-399
▁अर्	-400
▁छैन	-401
▁भारत	-402
▁गत	-403
▁कुरा	-404
▁उनी	-405
लेख	-406
▁निर्माण	-407
ंक	-408
▁जान	-409
▁पुग	-410
▁नयाँ	-411
▁ती	-412
▁था	-413
स्तो	-414
ाउने	-415
्रम	-416
▁हुन	-417
र्फ	-418
▁झ	-419
ुवा	-420
▁महिला	-421
रहेको	-422
ेरै	-423
पू	-424
▁शि	-425
डी	-426
ुट	-427
ेक	-428
ौँ	-429
▁लग	-430
हरुको	-431
मुख	-432
▁उनले	-433
मेर	-434
िति	-435
▁गरे	-436
▁प्रहर	-437
▁४	-438
▁देश	-439
नका	-440
▁आफ्नो	-441
चना	-442
्यो	-443
ारा	-444
ाली	-445
▁व्यवस्था	-446
र्ता	-447
▁विश्व	-448
▁कम	-449
▁धेरै	-450
▁हजार	-451
जी	-452
▁स्वा	-453
▁दुई	-454
▁आयो	-455
▁गा	-456
▁अव	-457
टो	-458
ेद	-459
▁प्रदेश	-460
्ञ	-461
ब्	-462
▁केही	-463
ूल	-464
▁जो	-465
▁खा	-466
बी	-467
िया	-468
ँच	-469
▁घर	-470
र्च	-471
▁साथ	-472
▁राम	-473
ोर	-474
▁अहिले	-475
घि	-476
▁कुनै	-477
▁भि	-478
ुक	-479
ँदा	-480
▁ओ	-481
▁कारण	-482
▁गु	-483
▁रू	-484
▁आज	-485
ग्	-486
हित	-487
▁अधिका	-488
▁२०७	-489
▁|	-490
▁स्थानीय	-491
ङ्ग	-492
▁गाउँ	-493
▁सम्बन्ध	-494
▁सू	-495
▁सामा	-496
म्ब	-497
▁६	-498
कु	-499
▁ढ	-500
▁नगरपालिका	-501
नुपर्ने	-502
▁दा	-503
नुभयो	-504
यर	-505
▁प्रधान	-506
सं	-507
ैले	-508
▁हा	-509
जन	-510
▁शा	-511
▁कार्यालय	-512
▁या	-513
षय	-514
टि	-515
चि	-516
ाउन	-517
▁आव	-518
लमा	-519
मी	-520
▁सञ्च	-521
▁चि	-522
भिन्न	-523
ताको	-524
श्य	-525
▁ति	-526
▁केन्द्र	-527
▁सेवा	-528
भन्दा	-529
ेन्	-530
जु	-531
भाग	-532
▁रुपमा	-533
▁निर्वा	-534
▁जानकारी	-535
खा	-536
ञ्	-537
▁निय	-538
▁गर्नु	-539
▁लगा	-540
▁औ	-541
▁मो	-542
▁हुन्	-543
▁आएको	-544
हरुले	-545
मै	-546
▁सकि	-547
सको	-548
त्म	-549
इन	-550
फल	-551
जि	-552
▁विषय	-553
ट्	-554
साय	-555
▁लाख	-556
▁?	-557
▁सय	-558
यत	-559
▁अध्यक्ष	-560
▁समेत	-561
▁व्यव	-562
ेव	-563
दान	-564
▁प्रहरी	-565
न्ति	-566
ुन	-567
▁खेल	-568
▁बो	-569
▁अवस्था	-570
जिक	-571
स्तै	-572
▁अनुसार	-573
यन	-574
ष्ठ	-575
▁विभिन्न	-576
▁७	-577
पी	-578
▁हामी	-579
▁बढी	-580
सो	-581
र्त	-582
पाद	-583
▁राष्ट्रिय	-584
दुर	-585
▁अमेर	-586
▁सद	-587
ग्र	-588
स्य	-589
▁राजनी	-590
▁प्रधानमन्त्री	-591
वन	-592
▁तपा	-593
प्त	-594
▁अस	-595
▁रो	-596
▁बताउ	-597
ेर्	-598
धा	-599
▁निर्वाच	-600
न्दै	-601
▁हुँदै	-602
स्ट	-603
र्ग	-604
▁महा	-605
▁बज	-606
▁ल्या	-607
▁समिति	-608
▁पोख	-609
▁रहेका	-610
▁सुरु	-611
▁प्रमुख	-612
▁संघ	-613
त्तिक	-614
▁गते	-615
▁तय	-616
▁कृ	-617
्रे	-618
▁अन्तर्	-619
स्या	-620
श्च	-621
डियो	-622
▁कार्	-623
थि	-624
▁सार्व	-625
▁बाल	-626
▁जी	-627
▁संस्था	-628
राष्ट्र	-629
्छ	-630
▁बे	-631
▁देख	-632
▁त्यो	-633
▁पत्र	-634
▁पढ	-635
▁गरेर	-636
▁पहिलो	-637
▁खु	-638
▁क्षेत्रमा	-639
जनिक	-640
▁छो	-641
च्च	-642
▁कात्तिक	-643
▁सरकारले	-644
▁लेख	-645
नुपर्छ	-646
▁दो	-647
▁नाम	-648
▁एउ	-649
राज	-650
रको	-651
ज्ञ	-652
▁बताए	-653
▁मन	-654
वादी	-655
ेष	-656
▁अब	-657
पूर्ण	-658
▁सहयोग	-659
▁तह	-660
णा	-661
▁रूपमा	-662
▁रुप	-663
▁सार्वजनिक	-664
▁मुल	-665
श्यक	-666
▁समस्या	-667
▁शु	-668
शत	-669
▁उहाँ	-670
डक	-671
टना	-672
हार	-673
▁कस	-674
▁सञ्चाल	-675
्यान	-676
▁८	-677
▁कम्प	-678
पति	-679
▁व्या	-680
▁अप	-681
▁भइ	-682
ामा	-683
▁समाज	-684
काश	-685
▁आयोजना	-686
▁ठू	-687
▁प्रतिशत	-688
▁पछि	-689
▁सम्प	-690
टन	-691
▁तपाई	-692
▁भू	-693
▁दल	-694
सन	-695
▁मन्त्र	-696
▁१०	-697
द्योग	-698
▁पर्य	-699
र्थिक	-700
र्श	-701
▁भयो	-702
▁पूर्व	-703
्रि	-704
न्स	-705
▁९	-706
धन	-707
▁मान	-708
यु	-709
▁जि	-710
स्थ्य	-711
गरिक	-712
पत्र	-713
▁प्रयोग	-714
ृद्ध	-715
▁दिने	-716
हरूको	-717
माले	-718
▁मे	-719
इएको	-720
▁मानि	-721
▁सडक	-722
▁शक्ति	-723
▁नभ	-724
स्तु	-725
▁भन्दा	-726
▁आधार	-727
▁नागरिक	-728
▁आर्थिक	-729
▁पार	-730
▁काठमाडौँ	-731
वेश	-732
ठक	-733
▁सूचना	-734
सु	-735
ीमा	-736
विधान	-737
करण	-738
▁नेपालको	-739
्नु	-740
▁अभ	-741
▁गर्दा	-742
▁चु	-743
हरुलाई	-744
ीत	-745
र्क	-746
▁आवश्यक	-747
पन	-748
▁डा	-749
▁नेता	-750
समा	-751
▁यु	-752
▁सुर	-753
हादुर	-754
▁समाचार	-755
▁व्यक्ति	-756
त्या	-757
क्षण	-758
ख्या	-759
▁संविधान	-760
शी	-761
तामा	-762
▁आइ	-763
ित्	-764
राष्ट्रिय	-765
ेन	-766
दाय	-767
▁उत्पाद	-768
▁रि	-769
▁संग	-770
िएको	-771
हरूले	-772
तन्त्र	-773
▁बस	-774
▁“	-775
सहित	-776
▁विद्य	-777
▁मुख	-778
▁व्यवसाय	-779
▁स्वास्थ्य	-780
▁कम्पनी	-781
▁सदस्य	-782
पना	-783
▁छा	-784
▁हाल	-785
्रेस	-786
▁हुनु	-787
▁गो	-788
▁तीन	-789
▁स्था	-790
▁एउटा	-791
▁||	-792
▁बुझ	-793
▁अनि	-794
सले	-795
हान	-796
▁आफू	-797
लको	-798
▁मध्य	-799
्यु	-800
▁हेर्	-801
▁पोखरा	-802
ूह	-803
ड्	-804
दैन	-805
सकेको	-806
मो	-807
▁अन्य	-808
दो	-809
होस्	-810
▁सक	-811
र्ट	-812
▁बने	-813
वी	-814
िर	-815
▁भनेर	-816
▁पद	-817
न्या	-818
न्ड	-819
▁भन्दै	-820
वाद	-821
▁निर्देश	-822
सम	-823
▁बजार	-824
्वा	-825
रहेका	-826
त्मक	-827
चा	-828
▁राज्य	-829
▁कानु	-830
▁निका	-831
ैं	-832
त्त	-833
▁पाँच	-834
▁फा	-835
▁प्रश	-836
▁बैठक	-837
▁बैंक	-838
▁मुलुक	-839
ोट	-840
▁लगानी	-841
▁बस्	-842
भित्र	-843
▁उद्योग	-844
स्थित	-845
उँ	-846
वरण	-847
पर	-848
ुल	-849
▁क्रम	-850
▁खोज	-851
कल	-852
न्व	-853
▁महिना	-854
लेको	-855
▁किन	-856
बीच	-857
▁बेला	-858
▁आएका	-859
तृ	-860
▁पाइ	-861
▁वै	-862
द्या	-863
▁पर्ने	-864
▁नेपालमा	-865
▁मन्त्रालय	-866
▁माग	-867
▁उक्त	-868
▁ठूलो	-869
▁सामाजिक	-870
▁गाउँपालिका	-871
▁राजनीतिक	-872
▁न्य	-873
पि	-874
▁हाम्रो	-875
▁बाँ	-876
▁प्रकाश	-877
▁सर्व	-878
▁पुन	-879
नुभएको	-880
▁रे	-881
▁बन्द	-882
▁यहाँ	-883
णय	-884
▁कर्म	-885
▁उनको	-886
रोड	-887
बि	-888
▁मृ	-889
▁डि	-890
▁निर्णय	-891
कम	-892
▁विदेश	-893
बहादुर	-894
▁रुपै	-895
▁पटक	-896
▁अस्	-897
ेक्	-898
▁श्री	-899
▁सम्म	-900
▁खे	-901
▁फो	-902
▁अघि	-903
▁करोड	-904
▁समूह	-905
षा	-906
अघि	-907
▁,	-908
वै	-909
▁होइन	-910
▁मूल	-911
ोली	-912
▁सम्झ	-913
सभा	-914
पु	-915
▁प्राप्त	-916
▁मुख्य	-917
▁विशेष	-918
काल	-919
चारी	-920
▁२७	-921
▁खो	-922
पत	-923
▁समु	-924
र्ड	-925
ेन्द्र	-926
▁दिएको	-927
▁योजना	-928
ीको	-929
लग	-930
▁अन्तर्राष्ट्रिय	-931
सिक	-932
नेछ	-933
▁१५	-934
हुन्छ	-935
▁सन्	-936
▁जे	-937
▁अमेरिका	-938
ोष	-939
लब	-940
▁वडा	-941
ेमा	-942
▁यस्तो	-943
▁सम्पन्न	-944
▁ले	-945
▁साल	-946
न्तर	-947
▁मन्त्री	-948
▁मध	-949
▁!	-950
दछ	-951
सद	-952
▁उल्	-953
▁ऐ	-954
▁दै	-955
गरी	-956
टमा	-957
एपछि	-958
▁कर्मचारी	-959
▁निक	-960
यक	-961
▁ची	-962
▁यी	-963
▁विद्या	-964
▁रुपैयाँ	-965
सक्	-966
▁घटना	-967
न्छन्	-968
क्ता	-969
▁अगा	-970
▁नेतृ	-971
क्रिया	-972
भर	-973
धिक	-974
त्ति	-975
घा	-976
▁एमाले	-977
से	-978
ृत	-979
नलाई	-980
▁मात्रै	-981
▁पक्ष	-982
त्यु	-983
▁ठाउँ	-984
ञ्ज	-985
बु	-986
▁दश	-987
धिका	-988
▁सफल	-989
▁हर	-990
▁चौ	-991
▁शिक्षा	-992
▁मत	-993
▁साम	-994
ृद्धि	-995
▁नेतृत्व	-996
शु	-997
▁राम्रो	-998
▁मृत्यु	-999
बर	-1000
▁'	-1001
▁वटा	-1002
▁लोक	-1003
▁भनि	-1004
▁एव	-1005
युक्त	-1006
▁कति	-1007
▁उत्पादन	-1008
क्षि	-1009
ारि	-1010
▁संर	-1011
▁टोली	-1012
प्रति	-1013
व्य	-1014
▁नी	-1015
सँगै	-1016
▁महत्व	-1017
जक	-1018
▁।’	-1019
▁प्रभाव	-1020
ओवादी	-1021
ेसी	-1022
नामा	-1023
▁सुरक्षा	-1024
▁कृष	-1025
▁भारतीय	-1026
▁उपल	-1027
धी	-1028
▁गएको	-1029
▁प्रतियोग	-1030
▁व्याप	-1031
कृति	-1032
ेरो	-1033
०७	-1034
सर	-1035
दर्श	-1036
▁क्या	-1037
बल	-1038
▁सहभाग	-1039
फा	-1040
▁खर्च	-1041
छा	-1042
कपा	-1043
ढी	-1044
तर्फ	-1045
नाइ	-1046
▁भेट	-1047
तिहा	-1048
▁बार	-1049
अनु	-1050
र्फत	-1051
▁दर	-1052
थम	-1053
ेपछि	-1054
▁अधिकारी	-1055
तरण	-1056
लाइ	-1057
चिव	-1058
▁अर्को	-1059
▁अभि	-1060
▁तत्	-1061
राम	-1062
▁परी	-1063
▁अर्थ	-1064
र्वा	-1065
▁सभा	-1066
▁विषयमा	-1067
▁साथै	-1068
▁१९	-1069
स्रो	-1070
▁प्रतियोगि	-1071
▁२०७५	-1072
▁थप	-1073
▁परिवार	-1074
क्षक	-1075
▁सक्छ	-1076
▁पूर्ण	-1077
श्चिम	-1078
विधि	-1079
▁भएर	-1080
▁चुना	-1081
▁मानव	-1082
▁पर्यटक	-1083
न्ने	-1084
▁ता	-1085
▁तयारी	-1086
▁चाह	-1087
▁ओली	-1088
र्थी	-1089
▁चल	-1090
▁लागेको	-1091
▁लक्ष	-1092
▁क्रममा	-1093
▁उत्त	-1094
त्ता	-1095
▁तपाईं	-1096
▁छन	-1097
मन	-1098
▁गीत	-1099
म्बर	-1100
▁पूरा	-1101
ग्री	-1102
▁बनाउन	-1103
ठन	-1104
▁शुरु	-1105
▁प्रतिनि	-1106
▁उपलब्	-1107
▁दैनिक	-1108
▁–	-1109
▁समयमा	-1110
क्क	-1111
▁रकम	-1112
▁अझ	-1113
▁हुनेछ	-1114
▁जुन	-1115
▁युवा	-1116
ठा	-1117
▁जारी	-1118
ेम	-1119
▁थापा	-1120
▁चार	-1121
▁अन	-1122
▁आउ	-1123
क्षिण	-1124
▁भित्र	-1125
▁निर्वाचन	-1126
▁११	-1127
▁सङ्	-1128
▁पुर्	-1129
मित	-1130
▁विद्यालय	-1131
म्भ	-1132
▁श्रे	-1133
▁कार्या	-1134
▁पाउने	-1135
यात	-1136
▁आग	-1137
▁गर्छ	-1138
▁नीति	-1139
िकी	-1140
▁लगायत	-1141
▁वितरण	-1142
▁हुँदैन	-1143
टै	-1144
▁जनाएको	-1145
▁कार	-1146
पो	-1147
▁कानुन	-1148
ंग्रेस	-1149
चाल	-1150
माथि	-1151
रोध	-1152
▁पक्र	-1153
▁न्या	-1154
▁अगाडि	-1155
▁:	-1156
▁इन्	-1157
▁यसको	-1158
र्मा	-1159
▁मैले	-1160
▁मेरो	-1161
▁अभिय	-1162
▁पुरु	-1163
बारे	-1164
▁दक्षिण	-1165
ष्ण	-1166
ानो	-1167
▁सञ्चालन	-1168
▁पानी	-1169
▁हामीले	-1170
ाल्	-1171
▁अवस्थामा	-1172
▁चर्च	-1173
▁१२	-1174
▁उल्लेख	-1175
▁बाहि	-1176
▁हुँदा	-1177
▁अफ	-1178
शो	-1179
▁भाग	-1180
▁भद	-1181
▁२०१	-1182
▁कांग्रेस	-1183
▁दोस्रो	-1184
▁बजेट	-1185
कर्ता	-1186
▁जन्	-1187
धारण	-1188
▁अधिकार	-1189
▁सकिन्छ	-1190
सन्	-1191
▁कार्यान्व	-1192
्ना	-1193
▁पि	-1194
▁परेको	-1195
▁कार्यक्रममा	-1196
▁पक्राउ	-1197
▁छु	-1198
▁दिए	-1199
काली	-1200
▁आउने	-1201
▁हरेक	-1202
▁बर्ष	-1203
अनुसार	-1204
वारी	-1205
▁ढु	-1206
न्दोल	-1207
▁दुर्	-1208
▁विभाग	-1209
▁विस्त	-1210
पनि	-1211
▁क्र	-1212
वान	-1213
▁जनता	-1214
साद	-1215
नाले	-1216
▁गुरु	-1217
मति	-1218
पताल	-1219
ेड	-1220
▁प्रव	-1221
हरुमा	-1222
ल्या	-1223
समेत	-1224
▁मौ	-1225
ल्ला	-1226
गायत	-1227
ेज	-1228
हरूलाई	-1229
▁समुदाय	-1230
▁अस्पताल	-1231
थ्यो	-1232
रू	-1233
▁कृषि	-1234
ल्लो	-1235
▁भ्रम	-1236
▁जिल्लाको	-1237
▁उच्च	-1238
▁बनेको	-1239
▁मन्द	-1240
▁पै	-1241
▁पुर	-1242
मार	-1243
▁रोज	-1244
▁श्रेष्ठ	-1245
▁नारा	-1246
▁२५	-1247
▁जोड	-1248
सन्धान	-1249
▁निर्देशन	-1250
▁काठमाडौंको	-1251
▁ज्ञ	-1252
ङ्क	-1253
▁उहाँले	-1254
ेकी	-1255
▁उपा	-1256
▁कर	-1257
▁स्थापना	-1258
र्ने	-1259
लिक	-1260
▁सम्झौ	-1261
▁अनुसन्धान	-1262
▁अद	-1263
तमा	-1264
▁२८	-1265
▁जित	-1266
▁उपचार	-1267
▁अमेरिकी	-1268
ेयर	-1269
▁नग	-1270
लले	-1271
▁नहु	-1272
▁हत्या	-1273
▁संस्	-1274
▁१४	-1275
▁संघीय	-1276
▁आधारमा	-1277
▁बनाउने	-1278
▁५०	-1279
ामी	-1280
दार	-1281
ालिका	-1282
ालि	-1283
▁नियन्त्र	-1284
▁निकाय	-1285
▁भिडियो	-1286
▁बी	-1287
▁एवं	-1288
ेन्ट	-1289
▁लिएर	-1290
▁सरकारी	-1291
▁अध्ययन	-1292
झा	-1293
स्ताव	-1294
▁घोष	-1295
लेर	-1296
▁दृ	-1297
▁१६	-1298
ट्ट	-1299
▁महान	-1300
▁नेकपा	-1301
च्छ	-1302
▁निकै	-1303
ीका	-1304
▁प्रक्रिया	-1305
्दै	-1306
▁व्यवस्थापन	-1307
▁विक	-1308
एन	-1309
▁दुवै	-1310
▁अधिक	-1311
वाह	-1312
लामा	-1313
▁जाने	-1314
▁मानिस	-1315
▁पत्रकार	-1316
▁लिन	-1317
▁आफ्ना	-1318
रुद्ध	-1319
ध्ये	-1320
▁बुध	-1321
▁धा	-1322
▁यात्र	-1323
▁नं	-1324
▁मूल्य	-1325
▁अभियान	-1326
▁उपलब्ध	-1327
▁उद्	-1328
▁सक्ने	-1329
साइ	-1330
ल्ने	-1331
▁सी	-1332
▁आरो	-1333
▁जीव	-1334
▁रहे	-1335
▁भएकाले	-1336
ाएको	-1337
▁पर्व	-1338
सिया	-1339
▁भाषा	-1340
▁[	-1341
ियन	-1342
▁प्रशा	-1343
▁पुरा	-1344
ेउ	-1345
नू	-1346
ंगल	-1347
▁प्रस्ताव	-1348
▁सबैभन्दा	-1349
▁प्रहरीले	-1350
▁आन्दोल	-1351
ँड	-1352
▁विज	-1353
वल	-1354
▁विमान	-1355
क्स	-1356
▁विचार	-1357
▁गर्नुपर्ने	-1358
▁सात	-1359
▁अति	-1360
▁पौ	-1361
तको	-1362
▁लामो	-1363
न्दी	-1364
राई	-1365
लु	-1366
▁छुट	-1367
कृतिक	-1368
▁गौ	-1369
चित्र	-1370
▁बताउनुभयो	-1371
▁विवरण	-1372
▁करि	-1373
▁सम्झौता	-1374
वासी	-1375
▁जीवन	-1376
ंगा	-1377
मको	-1378
संग	-1379
▁छल	-1380
▁सम्भाव	-1381
▁प्रत्य	-1382
श्व	-1383
ग्रह	-1384
▁कला	-1385
▁भ्रमण	-1386
ताका	-1387
कलन	-1388
,’	-1389
▁सां	-1390
माल	-1391
▁उम्म	-1392
▁चाहि	-1393
ंश	-1394
नाथ	-1395
▁प्रेम	-1396
▁देव	-1397
▁...	-1398
▁कहिले	-1399
तो	-1400
्दा	-1401
जो	-1402
▁भै	-1403
स्क	-1404
द्वार	-1405
▁त्यसै	-1406
▁घोषणा	-1407
र्ति	-1408
▁भएपछि	-1409
तले	-1410
लगायत	-1411
▁छि	-1412
▁प्रण	-1413
▁देखिन्छ	-1414
ष्टि	-1415
▁भनेको	-1416
▁माओवादी	-1417
र्न	-1418
कोट	-1419
द्दा	-1420
▁बला	-1421
▁पी	-1422
▁त्रि	-1423
▁पुगेको	-1424
▁पुरुष	-1425
रात्मक	-1426
▁न्याय	-1427
▁राष्ट्रपति	-1428
▁वर्षको	-1429
▁बस्ने	-1430
▁फि	-1431
प्रसाद	-1432
▁बिक	-1433
▁अदाल	-1434
▁सामान्य	-1435
भव	-1436
▁१३	-1437
▁सरकारको	-1438
्वास	-1439
▁निर	-1440
▁अर्ब	-1441
▁त्यसैले	-1442
चान	-1443
ृह	-1444
वर्त	-1445
वेद	-1446
▁तथ	-1447
धिकार	-1448
▁कानू	-1449
▁दर्ता	-1450
▁भइरहेको	-1451
▁मना	-1452
यण	-1453
▁फर	-1454
▁उमेर	-1455
कालीन	-1456
ेब	-1457
हाल	-1458
▁योग	-1459
▁-	-1460
▁ब्या	-1461
▁विद्यार्थी	-1462
▁तयार	-1463
▁भु	-1464
▁३०	-1465
▁खेला	-1466
▁ग्र	-1467
ीर	-1468
होस	-1469
▁फिल्	-1470
▁चुनाव	-1471
कर्ष	-1472
▁मलाई	-1473
▁बाटो	-1474
▁नियन्त्रण	-1475
▁तर्फ	-1476
▁प्रकाशित	-1477
ग्गा	-1478
▁अन्तर	-1479
गि	-1480
विधा	-1481
▁होला	-1482
▁त्यहाँ	-1483
▁बुधबार	-1484
जर	-1485
▁मुद्दा	-1486
▁विज्ञ	-1487
कारात्मक	-1488
मध्ये	-1489
▁यसै	-1490
▁जस्तो	-1491
संघ	-1492
▁उठ	-1493
▁बुद्ध	-1494
दर	-1495
एस	-1496
फो	-1497
▁व्यापार	-1498
▁आयोग	-1499
दू	-1500
चित	-1501
▁दिएका	-1502
इन्	-1503
स्त्र	-1504
▁तामा	-1505
▁भट्ट	-1506
पटक	-1507
▁न्यू	-1508
▁विस्तार	-1509
सम्	-1510
▁प्रदान	-1511
▁उम्मेद	-1512
▁नेपालका	-1513
▁प्रणाली	-1514
▁नदी	-1515
▁फुट	-1516
कृत	-1517
▁फाइ	-1518
▁व्यवसायी	-1519
र्स	-1520
▁मंगल	-1521
लर	-1522
तिर	-1523
यी	-1524
▁चलचित्र	-1525
▁ई	-1526
के	-1527
▁परिवर्त	-1528
▁छलफल	-1529
▁हुन्छन्	-1530
थे	-1531
▁२०७४	-1532
▁फार्म	-1533
▁स्ट	-1534
▁सिफ	-1535
▁सहित	-1536
षण	-1537
लै	-1538
▁१८	-1539
▁यस्ता	-1540
▁कसरी	-1541
▁स्थानमा	-1542
मार्ग	-1543
▁शान्ति	-1544
▁गोल	-1545
▁गै	-1546
▁गति	-1547
▁जु	-1548
भू	-1549
रत	-1550
▁मान्छ	-1551
्ले	-1552
▁शुभ	-1553
▁संख्या	-1554
ल्न	-1555
▁सन्द	-1556
▁गरिने	-1557
▁जग्गा	-1558
देव	-1559
▁गुरुङ	-1560
▁अरु	-1561
जको	-1562
▁आत्म	-1563
▁नम्बर	-1564
त्कार	-1565
परि	-1566
वास	-1567
▁यही	-1568
▁राजनीति	-1569
▁वस्तु	-1570
▁जिल्लामा	-1571
▁परेका	-1572
लाको	-1573
▁नेपालले	-1574
▁पछिल्लो	-1575
▁मिति	-1576
्युनि	-1577
▁सिफारि	-1578
द्वारा	-1579
▁दी	-1580
▁ट्र	-1581
ाउनु	-1582
डेल	-1583
▁बताएका	-1584
▁संयो	-1585
बो	-1586
▁सचिव	-1587
▁बाट	-1588
ेक्का	-1589
म्मा	-1590
▁त्यही	-1591
▁बिहान	-1592
यम	-1593
▁फर्	-1594
▁यसका	-1595
▁पैसा	-1596
▁चरण	-1597
▁त्यस्तै	-1598
हरूमा	-1599
▁लु	-1600
▁जन्म	-1601
डित	-1602
▁२१	-1603
▁खाने	-1604
▁बालब	-1605
▁म्या	-1606
लव	-1607
▁स्वी	-1608
ेरि	-1609
▁साइ	-1610
ाउँछ	-1611
▁प्रवेश	-1612
ल्क	-1613
रिया	-1614
▁डो	-1615
▁कै	-1616
▁अझै	-1617
▁प्रतिनिधि	-1618
▁देखिएको	-1619
ज्य	-1620
दिन	-1621
▁कम्युनि	-1622
ची	-1623
तम	-1624
▁रोजग	-1625
चल	-1626
ध्यक्ष	-1627
▁ठेक्का	-1628
▁त्यसको	-1629
▁आँ	-1630
▁प्रया	-1631
हन	-1632
मिका	-1633
▁धर्म	-1634
▁उपभ	-1635
▁स्रो	-1636
▁अा	-1637
▁फार्मेसी	-1638
काम	-1639
▁द्व	-1640
▁यति	-1641
▁बजारमा	-1642
▁1	-1643
बद्ध	-1644
▁छोरा	-1645
ालो	-1646
विद्य	-1647
▁बारेमा	-1648
‍या	-1649
▁धन	-1650
▁पर्यटन	-1651
लेका	-1652
▁सोच	-1653
र्जन	-1654
▁छौं	-1655
▁जेठ	-1656
▁च्या	-1657
द्धा	-1658
र्जा	-1659
वर	-1660
ताले	-1661
▁देउ	-1662
),	-1663
▁अधि	-1664
प्रमुख	-1665
▁सुन्द	-1666
▁परीक्षा	-1667
र्ज	-1668
▁पहिचान	-1669
▁बालबालिका	-1670
▁खबर	-1671
▁बढेको	-1672
▁रोग	-1673
▁क्षेत्रको	-1674
...]	-1675
▁पार्टीको	-1676
घटना	-1677
▁भदौ	-1678
ँदैन	-1679
▁उत्तर	-1680
कको	-1681
▁प्रस्तु	-1682
खु	-1683
▁प्रदर्श	-1684
र्या	-1685
▁सहभागी	-1686
पित	-1687
▁अन्ति	-1688
▁आफ्नै	-1689
▁खेलमा	-1690
▁संकलन	-1691
▁शेयर	-1692
▁त्यसपछि	-1693
पक्ष	-1694
▁राजधान	-1695
शि	-1696
▁एस	-1697
चालन	-1698
▁शर्मा	-1699
ेलि	-1700
▁जिम्म	-1701
▁महत्वपूर्ण	-1702
शाख	-1703
पान	-1704
▁ठाउँमा	-1705
न्ट	-1706
क्रमण	-1707
▁अन्तिम	-1708
▁चला	-1709
सकेका	-1710
डो	-1711
▁मंगलबार	-1712
▁विमानस्थ	-1713
एकी	-1714
▁यसले	-1715
▁जति	-1716
ध्यम	-1717
▁आदि	-1718
▁यस्तै	-1719
▁बजे	-1720
▁क्षम	-1721
थमिक	-1722
▁चाल	-1723
▁गरिरहेको	-1724
▁राई	-1725
▁सिफारिस	-1726
▁मै	-1727
फ्	-1728
कमा	-1729
▁ब्य	-1730
पको	-1731
▁तिन	-1732
▁थिएन	-1733
▁बाहिर	-1734
▁कार्यान्वयन	-1735
▁प्रश्न	-1736
▁घरमा	-1737
▁थाहा	-1738
▁रेडियो	-1739
▁गर्दछ	-1740
▁दुर्घटना	-1741
▁तो	-1742
ंह	-1743
▁राजा	-1744
▁एज	-1745
▁भई	-1746
बाही	-1747
▁ध्यान	-1748
▁प्राथमिक	-1749
▁औं	-1750
▁पूर्वा	-1751
▁सुविधा	-1752
▁शै	-1753
▁[...]	-1754
▁पहिले	-1755
सका	-1756
▁भण्ड	-1757
पश्चिम	-1758
▁स्प	-1759
▁खेलाडी	-1760
ते	-1761
त्री	-1762
▁नभएको	-1763
उनु	-1764
▁केन्द्रीय	-1765
सस	-1766
▁स्वतन्त्र	-1767
▁सजि	-1768
▁पढ्नु	-1769
▁यसरी	-1770
▁सम्बन्धी	-1771
▁फिल्म	-1772
▁आई	-1773
▁पशु	-1774
कम्प	-1775
पानी	-1776
▁संरक्षण	-1777
सीले	-1778
▁सुन	-1779
▁सुन्दर	-1780
तार	-1781
ित्व	-1782
▁बहु	-1783
▁लो	-1784
▁करिब	-1785
▁जस्तै	-1786
तावरण	-1787
▁असोज	-1788
बेला	-1789
रीको	-1790
▁ताल	-1791
▁संसद	-1792
▁संयोजक	-1793
मला	-1794
शील	-1795
▁मान्छे	-1796
▁थालेको	-1797
▁सामग्री	-1798
▁आगामी	-1799
▁उनलाई	-1800
▁प्रविधि	-1801
▁सवारी	-1802
▁गर्छन्	-1803
▁बलात्कार	-1804
▁पदा	-1805
▁निजी	-1806
▁२६	-1807
ष्टा	-1808
▁भूमिका	-1809
टल	-1810
▁ऋ	-1811
वाल	-1812
णि	-1813
▁दू	-1814
▁तेस	-1815
▁सहज	-1816
▁यौ	-1817
▁इतिहा	-1818
▁गैर	-1819
▁सोम	-1820
▁डे	-1821
▁असार	-1822
▁वातावरण	-1823
re	-1824
▁पठ	-1825
िकेट	-1826
▁आमा	-1827
▁निरन्तर	-1828
भु	-1829
▁पोर्ट	-1830
▁यसअघि	-1831
▁उम्मेदवार	-1832
मका	-1833
▁चिक	-1834
पूर्व	-1835
▁संयुक्त	-1836
▁सेना	-1837
▁हुनुहुन्छ	-1838
▁त्यति	-1839
▁सुधार	-1840
▁सम्मेल	-1841
▁विश्वास	-1842
▁क्षेत्रीय	-1843
कार्य	-1844
▁पौडेल	-1845
▁औष	-1846
▁तामाङ	-1847
▁टा	-1848
▁स्त	-1849
देश्य	-1850
▁एका	-1851
गोल	-1852
उँदै	-1853
▁ब्रा	-1854
र्भ	-1855
▁गराउने	-1856
▁तेस्रो	-1857
ोला	-1858
▁भनाइ	-1859
▁महासंघ	-1860
सुकै	-1861
▁सँग	-1862
शन	-1863
षद्	-1864
▁याद	-1865
▁चिनि	-1866
▁जस्ता	-1867
▁बिक्री	-1868
▁जल	-1869
▁।”	-1870
▁१७	-1871
▁साँ	-1872
विक	-1873
▁चिकित्	-1874
जित	-1875
ढा	-1876
▁टि	-1877
▁अपरा	-1878
▁विगत	-1879
पक	-1880
▁बलि	-1881
▁समाधान	-1882
ल्प	-1883
▁छैनन्	-1884
सलाई	-1885
▁अंक	-1886
▁जब	-1887
▁पर्छ	-1888
▁अधिकृत	-1889
▁गण	-1890
▁बच	-1891
००	-1892
▁क्लब	-1893
▁लाभ	-1894
▁सम्भावना	-1895
▁हात	-1896
▁जनसं	-1897
▁प्रमाण	-1898
▁टु	-1899
▁विद्यु	-1900
▁डलर	-1901
कर्म	-1902
काे	-1903
क्षित	-1904
▁गृह	-1905
▁घण्	-1906
▁चित	-1907
स्व	-1908
नगर	-1909
▁लक्ष्य	-1910
▁सीमा	-1911
उँछ	-1912
ारमा	-1913
▁तिम	-1914
लग्न	-1915
▁विदेशी	-1916
▁परिवर्तन	-1917
धु	-1918
▁सहमति	-1919
▁अभाव	-1920
गढ	-1921
मे	-1922
▁देशको	-1923
▁निर्वाचित	-1924
▁प्रयास	-1925
▁बताउँ	-1926
यल	-1927
▁भन्छन्	-1928
▁लाग्ने	-1929
▁एकै	-1930
▁शनि	-1931
हित्य	-1932
▁पदमा	-1933
वेदन	-1934
ैँ	-1935
▁बाँकी	-1936
▁सम्बन्धित	-1937
स्ती	-1938
▁कायम	-1939
▁चीन	-1940
▁अर्था	-1941
▁आशा	-1942
▁कारो	-1943
ब्द	-1944
▁२२	-1945
सम्बन्ध	-1946
▁प्रकार	-1947
▁सम्मान	-1948
▁भौ	-1949
▁निम्	-1950
▁सामु	-1951
▁शुक्र	-1952
▁कारबाही	-1953
कला	-1954
अन्त	-1955
डान	-1956
▁पुर्‍या	-1957
▁२४	-1958
▁कवि	-1959
▁सकिने	-1960
नुहुन्छ	-1961
▁केहि	-1962
ेश्व	-1963
किएको	-1964
डिया	-1965
▁अनुग	-1966
▁नसक्	-1967
पय	-1968
▁वृद्धि	-1969
▁संलग्न	-1970
▁नजिक	-1971
▁गि	-1972
मात्र	-1973
▁तुल	-1974
▁अग्र	-1975
पण	-1976
▁कान्ति	-1977
▁दिव	-1978
▁तत्काल	-1979
▁हेर्नु	-1980
▁जनसंख्या	-1981
▁तत्कालीन	-1982
▁सङ्घ	-1983
ुरो	-1984
▁विक्र	-1985
▁भर्	-1986
▁साउन	-1987
▁झा	-1988
▁नव	-1989
▁गठन	-1990
▁गरेपछि	-1991
यार	-1992
ेलु	-1993
ंसा	-1994
▁खान	-1995
ेवारी	-1996
▁भ्र	-1997
▁यसलाई	-1998
▁नारायण	-1999
▁माध्यम	-2000
▁दिनुभयो	-2001
▁फै	-2002
▁ट्रा	-2003
▁बनाएको	-2004
गु	-2005
▁भन्नुभयो	-2006
ञ्चन	-2007
▁पूर्वाधार	-2008
▁कतिपय	-2009
न्तरण	-2010
द्र	-2011
कुमार	-2012
स्थिति	-2013
▁तर्फबाट	-2014
▁नदि	-2015
▁अन्तर्गत	-2016
भाइ	-2017
सान	-2018
▁बाह	-2019
▁दर्श	-2020
▁कानून	-2021
▁भारतको	-2022
गो	-2023
ेरी	-2024
▁अवसर	-2025
▁मिल्	-2026
▁भूकम्प	-2027
▁सोही	-2028
▁दिँदै	-2029
an	-2030
▁मार्फत	-2031
▁जिम्मेवारी	-2032
फाइ	-2033
हरण	-2034
▁एक्	-2035
▁पाइन्छ	-2036
▁विश्वक	-2037
▁सश	-2038
▁संसार	-2039
वसाय	-2040
सरमा	-2041
▁थाल	-2042
लत	-2043
▁घण्टा	-2044
▁पन्त	-2045
‍यो	-2046
▁थु	-2047
▁लागू	-2048
▁विवाद	-2049
▁सांसद	-2050
▁राख्ने	-2051
▁उपभो	-2052
▁फरक	-2053
▁बीच	-2054
▁कोइ	-2055
▁नाममा	-2056
श्	-2057
▁सध	-2058
योजना	-2059
▁कृष्ण	-2060
▁ऊ	-2061
▁संरचना	-2062
निर्	-2063
गमा	-2064
▁आइत	-2065
न्दु	-2066
▁युव	-2067
▁ग्रा	-2068
▁साहित्य	-2069
तिहासिक	-2070
मले	-2071
▁बिही	-2072
▁छठ	-2073
ँजी	-2074
▁ऐन	-2075
▁बैंकले	-2076
सीको	-2077
▁यादव	-2078
एल	-2079
कले	-2080
ीकरण	-2081
▁हिँड	-2082
▁लगायतका	-2083
▁भण्डारी	-2084
▁हेर	-2085
ल्य	-2086
र्षिक	-2087
▁फोटो	-2088
▁श्रम	-2089
▁सम्पूर्ण	-2090
▁दिइ	-2091
▁जसले	-2092
▁विश्ले	-2093
▁पश्चिम	-2094
▁सकारात्मक	-2095
सम्बन्धी	-2096
लित	-2097
्यार	-2098
▁उनका	-2099
नो	-2100
▁शब्द	-2101
▁पहा	-2102
▁कञ्चन	-2103
▁तथ्या	-2104
▁गरा	-2105
▁जापान	-2106
नेट	-2107
▁दाहाल	-2108
▁बर्	-2109
▁सकेको	-2110
al	-2111
▁केपी	-2112
▁आकर्ष	-2113
एम	-2114
▁हट	-2115
▁४०	-2116
▁चै	-2117
▁राखि	-2118
▁सन्त	-2119
▁क्रिकेट	-2120
▁नहुने	-2121
▁उद्देश्य	-2122
मेल	-2123
मूल	-2124
गरपालिका	-2125
▁स्या	-2126
च्चा	-2127
▁घु	-2128
▁संशो	-2129
▁हस्ता	-2130
▁लाइ	-2131
▁विप	-2132
▁दलित	-2133
▁वर्ग	-2134
अन्तर्	-2135
▁वन	-2136
▁जम्मा	-2137
सित	-2138
▁खरि	-2139
▁पुल	-2140
▁किलो	-2141
▁गरिन्छ	-2142
▁सहभागि	-2143
पुरमा	-2144
▁साथी	-2145
▁फर्क	-2146
▁एन	-2147
▁बोल	-2148
▁राखेर	-2149
न्द्व	-2150
ेसम्म	-2151
रामी	-2152
▁गरिरहेका	-2153
▁पढ्नुहोस्	-2154
▁लागु	-2155
▁कलाकार	-2156
▁"	-2157
▁कोष	-2158
▁२३	-2159
▁मन्दि	-2160
▁अनुगमन	-2161
▁सोमबार	-2162
▁आम	-2163
▁गलत	-2164
▁कर्ण	-2165
▁विरोध	-2166
न्त्रिक	-2167
▁राज्यको	-2168
ेन्सी	-2169
▁रोजगारी	-2170
नाको	-2171
▁मिटर	-2172
▁राख्न	-2173
▁संस्कृति	-2174
▁२०६	-2175
▁गुण	-2176
▁लाई	-2177
▁बताउँछन्	-2178
▁वेब	-2179
राजित	-2180
on	-2181
वार्ता	-2182
▁उपयोग	-2183
▁लिएको	-2184
▁पह	-2185
▁पृ	-2186
आर	-2187
लाग्	-2188
▁प्रसार	-2189
ाउँदा	-2190
▁खरिद	-2191
▁बनाएर	-2192
▁जनताको	-2193
राब	-2194
लका	-2195
ेता	-2196
▁घट	-2197
▁धार	-2198
क्षिक	-2199
श्चित	-2200
▁लिने	-2201
▁बिहीबार	-2202
▁बम	-2203
▁पूजा	-2204
▁मन्त्रालयले	-2205
▁गाडी	-2206
▁विवाह	-2207
चण्ड	-2208
दारी	-2209
कृष्ट	-2210
▁रहने	-2211
▁हामीलाई	-2212
▁शिक्षक	-2213
▁अन्त्य	-2214
▁बसेको	-2215
अन्तर्गत	-2216
▁कमा	-2217
▁छोरी	-2218
▁गर्नुपर्छ	-2219
न्ज	-2220
▁भ्रष्टा	-2221
▁आग्रह	-2222
हुँ	-2223
र्मिक	-2224
िनी	-2225
▁यात्रा	-2226
चन	-2227
▁फोन	-2228
▁क्षति	-2229
in	-2230
▁ऐतिहासिक	-2231
▁मन्दिर	-2232
ाउँदै	-2233
▁सम्बो	-2234
▁पुनः	-2235
▁वरि	-2236
▁विधि	-2237
▁निर्मला	-2238
▁आरोप	-2239
▁शाखा	-2240
▁भट्टराई	-2241
▁प्रस्तुत	-2242
▁यसमा	-2243
▁लाग्छ	-2244
▁प्रतियोगिता	-2245
टु	-2246
सिर	-2247
तीमा	-2248
▁सुपर	-2249
सिय	-2250
▁गावि	-2251
▁मधेस	-2252
▁कले	-2253
पर्धा	-2254
▁चिकित्सक	-2255
▁माटो	-2256
▁फेरि	-2257
▁नगरप्रमुख	-2258
▁यौन	-2259
▁प्रशि	-2260
▁विश्लेषण	-2261
ङ्गा	-2262
प्ता	-2263
▁प्रथम	-2264
▁व्यवहार	-2265
▁कसै	-2266
▁हरा	-2267
ar	-2268
म्परा	-2269
▁किसान	-2270
▁कम्युनिष्ट	-2271
ौती	-2272
▁क्षमता	-2273
डामा	-2274
वेशन	-2275
क्रिय	-2276
▁जाँदा	-2277
▁नगरपालिकाको	-2278
▁सम्बन्धि	-2279
▁प्राकृतिक	-2280
▁व्यक्त	-2281
वे	-2282
▁गठ	-2283
▁बोक	-2284
म्बा	-2285
्यता	-2286
▁भाइ	-2287
तान्त्रिक	-2288
▁आवश्यकता	-2289
२०	-2290
▁गुल्	-2291
▁समेट	-2292
▁पीडित	-2293
▁बन्ने	-2294
▁वर्षीय	-2295
काको	-2296
▁भाव	-2297
दायिक	-2298
▁एकता	-2299
▁भक्त	-2300
▁ओलीले	-2301
तै	-2302
ज्ञान	-2303
मेन्ट	-2304
▁अवधि	-2305
▁न्यु	-2306
▁आउन	-2307
्यास	-2308
▁कुल	-2309
तायात	-2310
▁भे	-2311
▁लै	-2312
▁बोर्ड	-2313
धे	-2314
▁भ्रष्टाचार	-2315
ध्या	-2316
▁भाषाको	-2317
▁कारोबार	-2318
गति	-2319
विद्यालय	-2320
▁पार्टीका	-2321
▁ऋण	-2322
▁परम्परा	-2323
▁द्वन्द्व	-2324
न्वय	-2325
▁टिम	-2326
▁स्रोत	-2327
▁कप	-2328
▁मोदी	-2329
▁हस्त	-2330
▁आइतबार	-2331
त्न	-2332
▁यातायात	-2333
ङको	-2334
▁चो	-2335
सचिव	-2336
िल्लो	-2337
स्थान	-2338
भिडियो	-2339
▁सहकारी	-2340
तीय	-2341
▁दाबी	-2342
▁माथि	-2343
मती	-2344
▁गर्नुभएको	-2345
वाट	-2346
▁मगर	-2347
▁शहर	-2348
▁उपत्य	-2349
▁पुनर्	-2350
▁बंग	-2351
▁प्रजा	-2352
▁कञ्चनपुर	-2353
▁कोइरा	-2354
▁इतिहास	-2355
दु	-2356
▁जोडि	-2357
▁गुना	-2358
▁नाका	-2359
▁मज	-2360
▁दरबार	-2361
▁प्रदेशमा	-2362
▁—	-2363
▁ज्ञा	-2364
▁हिसा	-2365
▁वैशाख	-2366
▁प्रो	-2367
▁गराउन	-2368
▁ठूला	-2369
▁बैठकले	-2370
▁शुक्रबार	-2371
▁काठमाडौंमा	-2372
▁वार्षिक	-2373
▁समितिको	-2374
गी	-2375
▁कस्तो	-2376
▁बाध्य	-2377
▁बन्न	-2378
▁सम्बोधन	-2379
▁मान्य	-2380
▁अधिकांश	-2381
▁फु	-2382
▁वेबसाइ	-2383
▁यदि	-2384
लाग्दो	-2385
▁तिहार	-2386
▁आधिकार	-2387
ष्य	-2388
▁खड्	-2389
मार्फत	-2390
▁रहेछ	-2391
▁घा	-2392
▁कार्तिक	-2393
▁हुँदैनन्	-2394
▁आधिकारिक	-2395
▁कुन	-2396
▁चुन	-2397
साधारण	-2398
▁जनाको	-2399
▁अवसरमा	-2400
▁समन्वय	-2401
▁पर्यटकीय	-2402
▁क्षेत्रका	-2403
▁देशमा	-2404
▁ललित	-2405
▁कम्पनीले	-2406
▁आफै	-2407
▁सर्	-2408
▁बाबु	-2409
▁पुग्ने	-2410
▁मध्यमा	-2411
▁सक्छन्	-2412
▁उत्कृष्ट	-2413
▁अत्य	-2414
▁प्रत्यक्ष	-2415
▁खेती	-2416
▁माया	-2417
▁उपभोक्ता	-2418
न्तरिक	-2419
ल्ल	-2420
▁इन्टर	-2421
▁चर्चा	-2422
▁भइसकेको	-2423
▁पक्षमा	-2424
डमा	-2425
विध	-2426
▁मं	-2427
▁शरी	-2428
▁लागी	-2429
▁मुख्यमन्त्री	-2430
▁प्रतिस्	-2431
▁धार्मिक	-2432
▁मनो	-2433
▁कसैले	-2434
▁फुटबल	-2435
आई	-2436
▁आन्दोलन	-2437
▁विश्वविद्यालय	-2438
▁भी	-2439
▁सामुदायिक	-2440
▁ज्यान	-2441
▁सबैको	-2442
सिए	-2443
▁पुष्	-2444
▁दृश्य	-2445
▁वर्षमा	-2446
▁चर्चित	-2447
मत	-2448
्ला	-2449
▁मानसिक	-2450
सँगको	-2451
▁थाले	-2452
▁मेयर	-2453
▁चरणमा	-2454
▁सर्वो	-2455
▁गर्नुहोस्	-2456
▁ठा	-2457
▁सुनि	-2458
भी	-2459
▁खुला	-2460
▁नियु	-2461
▁बिरामी	-2462
▁पुगेका	-2463
▁पत्रिका	-2464
▁आठ	-2465
▁पारि	-2466
▁सञ्चार	-2467
दूर	-2468
पूर्वक	-2469
▁प्रदर्शन	-2470
▁प्रशासन	-2471
▁नगरपालिकाका	-2472
▁अल	-2473
तिको	-2474
▁गरिएका	-2475
▁भन्न	-2476
▁सिंह	-2477
टीको	-2478
▁मधेश	-2479
▁पाएको	-2480
▁प्रचार	-2481
तह	-2482
वली	-2483
िमि	-2484
चार्य	-2485
स्कार	-2486
▁दिनु	-2487
▁स्पष्ट	-2488
लाइन	-2489
ुले	-2490
▁सै	-2491
क्षम	-2492
योजन	-2493
हिनी	-2494
देशिक	-2495
▁सक्रिय	-2496
▁हुनुपर्छ	-2497
▁बौ	-2498
ालले	-2499
▁उसको	-2500
▁दिनमा	-2501
▁जिल्लाका	-2502
चे	-2503
ेश्वर	-2504
▁चिन्	-2505
▁२९	-2506
▁छुट्	-2507
▁सम्व	-2508
▁स्थापित	-2509
▁माघ	-2510
▁देउवा	-2511
कारि	-2512
त्रा	-2513
▁सानो	-2514
रेल	-2515
▁त्यसलाई	-2516
▁प्रतियोगितामा	-2517
वाज	-2518
न्थ्यो	-2519
▁समावेश	-2520
▁R	-2521
▁भो	-2522
▁कार्यक्रमको	-2523
वटा	-2524
▁»	-2525
गुन	-2526
▁शी	-2527
er	-2528
▁इला	-2529
▁काँग	-2530
क्षर	-2531
▁आन्तरिक	-2532
▁सदर	-2533
▁तहको	-2534
▁प्रगति	-2535
▁सिद्धा	-2536
सद्	-2537
▁कालो	-2538
र्इ	-2539
हरुका	-2540
▁अहिलेसम्म	-2541
▁नप	-2542
▁हिमा	-2543
▁शनिबार	-2544
ंका	-2545
▁संगठ	-2546
▁राजधानी	-2547
▁घाइ	-2548
▁उसले	-2549
▁नियम	-2550
▁कार्की	-2551
▁मनोर	-2552
ेले	-2553
▁आजको	-2554
▁नागरिकता	-2555
▁कम्	-2556
दय	-2557
▁नौ	-2558
▁नर	-2559
ख्	-2560
०७५	-2561
▁वास्त	-2562
▁समृद्धि	-2563
▁काँग्रेस	-2564
ेप	-2565
ङमा	-2566
रीमा	-2567
▁सन्दर्भ	-2568
बाटै	-2569
कर्मी	-2570
▁सुझा	-2571
▁निर्देशक	-2572
सव	-2573
▁कोही	-2574
वाही	-2575
▁समितिले	-2576
यता	-2577
ालको	-2578
▁पाठ	-2579
▁देखा	-2580
▁शेर्	-2581
▁उमेरमा	-2582
▁चन्द्र	-2583
▁हक	-2584
पर्क	-2585
▁जोख	-2586
▁धारणा	-2587
▁समर्थ	-2588
गढी	-2589
▁पहिला	-2590
▁पारित	-2591
दानी	-2592
▁सपना	-2593
वसायिक	-2594
माओवादी	-2595
▁एजेन्सी	-2596
▁कमि	-2597
▁फूल	-2598
▁अनुभव	-2599
▁संगठन	-2600
मार्ट	-2601
▁आँखा	-2602
▁विरा	-2603
▁प्रचण्ड	-2604
▁सहकार्य	-2605
लाले	-2606
▁पाल	-2607
▁आयोजक	-2608
▁प्रेस	-2609
▁स्वागत	-2610
▁निर्देशनालय	-2611
ोजिम	-2612
क्का	-2613
णिज्य	-2614
बाइ	-2615
▁सक्दैन	-2616
▁सर्वसाधारण	-2617
बाह	-2618
▁चढ	-2619
▁सिर्	-2620
▁मिलेर	-2621
टको	-2622
स्कृतिक	-2623
▁प्रत्येक	-2624
ad	-2625
▁पाँचौ	-2626
▁शेर्पा	-2627
वाफ	-2628
रीले	-2629
▁नपा	-2630
विरुद्ध	-2631
▁संक	-2632
यन्त्र	-2633
▁प्रसारण	-2634
्यू	-2635
▁बंगला	-2636
ेली	-2637
▁माइ	-2638
▁तहमा	-2639
खर	-2640
▁औषधि	-2641
▁परिण	-2642
▁पराजित	-2643
▁की	-2644
▁सशस्त्र	-2645
▁गर्नुभयो	-2646
▁बढ्दै	-2647
▁कोरिया	-2648
▁थापाले	-2649
▁प्रावि	-2650
▁कर्णाली	-2651
▁शैक्षिक	-2652
▁निज	-2653
▁नगरी	-2654
▁बनाई	-2655
नित	-2656
▁काममा	-2657
▁उनीहरू	-2658
▁सम्बन्धमा	-2659
▁निर्वाचनमा	-2660
▁सँगै	-2661
▁ज्ञान	-2662
▁थिइन्	-2663
▁सालमा	-2664
स्की	-2665
▁बेच	-2666
▁सञ्ज	-2667
▁कक्षा	-2668
▁फेस	-2669
▁राति	-2670
▁आफूलाई	-2671
▁समितिका	-2672
टे	-2673
▁खास	-2674
लाल	-2675
र्तमान	-2676
▁पन्तको	-2677
▁असर	-2678
नेपाल	-2679
▁कार्यान्वय	-2680
्रु	-2681
ृत्ति	-2682
▁उपत्यका	-2683
▁कठ	-2684
▁लिग	-2685
ेनन्	-2686
धिकरण	-2687
▁सदरमु	-2688
▁प्रतिनिध	-2689
▁अमेरिकाको	-2690
▁यथा	-2691
▁रोक	-2692
▁वित्त	-2693
यको	-2694
▁गम्भ	-2695
▁सिर्जना	-2696
ण्डा	-2697
▁उदा	-2698
पूर्ति	-2699
▁नियमित	-2700
▁चिनियाँ	-2701
निया	-2702
▁अरू	-2703
▁घाइते	-2704
▁पुष्प	-2705
टेड	-2706
रीय	-2707
क्टर	-2708
मिटर	-2709
▁प्या	-2710
दे	-2711
मूलक	-2712
▁पेट	-2713
वधान	-2714
▁बनाइ	-2715
सिल	-2716
▁आश	-2717
रासस	-2718
▁बन्	-2719
▁गम्भीर	-2720
▁०	-2721
▁11	-2722
es	-2723
एफ	-2724
ेलिया	-2725
▁सुदूर	-2726
▁सामाग्री	-2727
▁कामदार	-2728
▁सर्वोच्च	-2729
om	-2730
▁जम	-2731
▁भएन	-2732
▁कारणले	-2733
▁त्यस्तो	-2734
▁निष्	-2735
▁आफूले	-2736
ल्दै	-2737
▁प्रभावित	-2738
▁श्रेष्ठले	-2739
▁औँ	-2740
▁विविध	-2741
▁संशोधन	-2742
▁भवन	-2743
▁प्राधिकरण	-2744
लोक	-2745
धेयक	-2746
नं	-2747
▁दृष्टि	-2748
07	-2749
वत	-2750
पुग	-2751
▁हिसाब	-2752
▁गुनासो	-2753
▁योगदान	-2754
▁उपाध्यक्ष	-2755
▁पुग्न	-2756
▁पुस्त	-2757
▁तरकारी	-2758
▁पट	-2759
ग्रा	-2760
ल्लाह	-2761
सम्मको	-2762
▁मोबाइ	-2763
▁सिद्धान्त	-2764
▁भर	-2765
▁छाड	-2766
▁परिच	-2767
▁संचालन	-2768
▁जवाफ	-2769
▁चितवन	-2770
▁अघ	-2771
▁जोखिम	-2772
▁हिमाल	-2773
▁ल्याउने	-2774
खोला	-2775
पर्ने	-2776
भाइजर	-2777
▁चुनौती	-2778
▁पदार्थ	-2779
नेर	-2780
▁अपा	-2781
▁अपराध	-2782
▁तिमाल	-2783
घाटन	-2784
▁दर्जन	-2785
▁नसकेको	-2786
ञ्‍	-2787
▁करी	-2788
▁हरि	-2789
▁आयात	-2790
लबन्दी	-2791
लगायतका	-2792
▁विधेयक	-2793
▁मोड	-2794
निर्माण	-2795
▁राखेको	-2796
▁मन्दिरमा	-2797
▁सुपरभाइजर	-2798
48	-2799
सिङ	-2800
▁चौध	-2801
▁महो	-2802
▁अभिन	-2803
▁२०७३	-2804
▁आयोजित	-2805
▁निर्माणको	-2806
▁प्राविधिक	-2807
पद	-2808
▁पेश	-2809
▁मध्ये	-2810
बास	-2811
▁एकजना	-2812
▁संगीत	-2813
▁वेबसाइट	-2814
-7	-2815
▁शिव	-2816
▁खोला	-2817
थो	-2818
िमा	-2819
ाइएको	-2820
चेत	-2821
▁निर्माणका	-2822
तका	-2823
रुप	-2824
▁जाग	-2825
▁२००	-2826
▁निरा	-2827
▁व्यवस्थाप	-2828
▁हुनुपर्ने	-2829
जोर	-2830
▁टेलि	-2831
▁सम्पत्ति	-2832
भने	-2833
जस्ता	-2834
▁त्यसमा	-2835
थी	-2836
074	-2837
▁आए	-2838
▁बालिका	-2839
तः	-2840
फी	-2841
▁2	-2842
▁एयर	-2843
▁जरु	-2844
▁जानु	-2845
ामु	-2846
ञ्‍चल	-2847
-75	-2848
/074	-2849
तिका	-2850
▁सहा	-2851
▁1148	-2852
▁लाग्	-2853
▁बौद्ध	-2854
/074-75	-2855
▁क्रिया	-2856
▁सञ्चालनमा	-2857
▁मध्यमाञ्‍चल	-2858
द्र्	-2859
▁जरुरी	-2860
चारिक	-2861
न्तव्य	-2862
▁पहिरो	-2863
▁सामान	-2864
▁मिडिया	-2865
▁पशुपति	-2866
▁भवि	-2867
द्द	-2868
सरी	-2869
▁कार्यकर्ता	-2870
▁छनोट	-2871
मीले	-2872
▁अर्थात्	-2873
▁परियोजना	-2874
दाता	-2875
▁एसिया	-2876
▁बढ्ने	-2877
क्न	-2878
▁किसि	-2879
▁पर्दैन	-2880
▁ललितपुर	-2881
▁विरुद्ध	-2882
सू	-2883
▁डु	-2884
▁देखिने	-2885
▁पुरानो	-2886
बे	-2887
ल्ली	-2888
▁देशका	-2889
▁पार्ने	-2890
▁परा	-2891
▁वर्तमान	-2892
▁विमानस्थल	-2893
▁व्यावसायिक	-2894
▁६०	-2895
ारम्भ	-2896
▁पर्दछ	-2897
▁सदरमुकाम	-2898
▁कलेज	-2899
▁भद्र	-2900
▁मान्यता	-2901
▁विकासका	-2902
▁शिलबन्दी	-2903
ममा	-2904
▁कास्की	-2905
▁प्रतिस्पर्धा	-2906
कुर	-2907
पादन	-2908
▁मनाइ	-2909
▁ल्याउन	-2910
ल्ट	-2911
▁एउटै	-2912
▁औद्योग	-2913
▁लगाउने	-2914
▁क्षेत्रलाई	-2915
▁ज्या	-2916
▁सधैं	-2917
▁प्राथमिकता	-2918
▁छान	-2919
▁तस्	-2920
▁तालिम	-2921
▁निस्क	-2922
▁कार्यालयले	-2923
कूल	-2924
▁यू	-2925
ल्यै	-2926
▁जनक	-2927
▁ब्र	-2928
▁साना	-2929
▁पाउ	-2930
▁वर्षा	-2931
ल्याण्ड	-2932
कानी	-2933
तिकै	-2934
द्रा	-2935
▁श्र	-2936
▁भौतिक	-2937
▁ब्	-2938
▁भग	-2939
▁है	-2940
▁कथा	-2941
▁रिय	-2942
▁उद्ध	-2943
▁आधारित	-2944
▁लाग्यो	-2945
▁सभापति	-2946
▁महिलाको	-2947
▁स्मार्ट	-2948
▁भनी	-2949
▁अर्का	-2950
▁सफलता	-2951
▁राह	-2952
▁रामे	-2953
▁सुझाव	-2954
▁गए	-2955
▁फोर	-2956
▁परिचय	-2957
▁स्थित	-2958
▁प्रतिनिधित्व	-2959
▁ढा	-2960
▁शो	-2961
▁धारा	-2962
▁प्रभावकारी	-2963
ोब	-2964
टाइ	-2965
▁सत्य	-2966
▁राखिएको	-2967
कुल	-2968
क्ट	-2969
▁सभ	-2970
▁३१	-2971
▁ढुंगा	-2972
▁एशो	-2973
▁शाह	-2974
▁गुमा	-2975
▁अनलाइन	-2976
▁रामेछा	-2977
आइ	-2978
बुक	-2979
हत्या	-2980
किस्ता	-2981
▁गर्नका	-2982
कर	-2983
▁उनीहरु	-2984
▁मन्त्रि	-2985
▁महानगरपालिका	-2986
न्धु	-2987
ण्डकी	-2988
▁साता	-2989
▁नेपाललाई	-2990
्मी	-2991
हे	-2992
▁चाड	-2993
▁२०५	-2994
दल	-2995
ेटि	-2996
▁साधारण	-2997
▁आदेश	-2998
▁गौतम	-2999
▁च्याम्प	-3000
ढे	-3001
वानको	-3002
▁सिका	-3003
▁हेर्न	-3004
▁/	-3005
▁ठु	-3006
▁नति	-3007
▁मेला	-3008
क्षेत्र	-3009
▁गुणस्त	-3010
▁बोलपत्र	-3011
▁किलोमिटर	-3012
▁कान्तिपुर	-3013
ञ्चल	-3014
न्तु	-3015
▁बराब	-3016
▁मंसिर	-3017
▁प्रशास	-3018
▁मुलुकमा	-3019
र्ती	-3020
▁साउ	-3021
▁बल	-3022
ानु	-3023
▁खि	-3024
▁वरिष्ठ	-3025
▁विद्युत्	-3026
भल	-3027
▁रेल	-3028
▁समान	-3029
▁चित्र	-3030
▁शुल्क	-3031
▁हिंसा	-3032
▁निम्ति	-3033
▁भविष्य	-3034
▁बह	-3035
▁भोज	-3036
▁बताउँदै	-3037
▁सन्दर्भमा	-3038
▁कमजोर	-3039
धीश	-3040
्रै	-3041
न्छु	-3042
▁छोड	-3043
▁मैदान	-3044
विश	-3045
▁आफैं	-3046
▁आक्रमण	-3047
▁औद्योगिक	-3048
टनगर	-3049
▁सुना	-3050
▁बन्दी	-3051
नल	-3052
▁अनुमति	-3053
ँडा	-3054
▁टे	-3055
▁दशम	-3056
▁ढुक्क	-3057
▁सुचना	-3058
ंगी	-3059
िने	-3060
▁जहाँ	-3061
▁फ्रा	-3062
▁फागुन	-3063
▁बहादुर	-3064
▁कुराकानी	-3065
▁p	-3066
▁मिला	-3067
▁नियन्त्रणमा	-3068
होला	-3069
▁साह	-3070
▁थिएँ	-3071
▁वित्तीय	-3072
तिमा	-3073
▁कार्यकारी	-3074
▁धु	-3075
▁चुनावी	-3076
▁हिमाली	-3077
फ्ट	-3078
▁काग	-3079
शुल्क	-3080
▁वार्ता	-3081
▁मन्त्रिपरि	-3082
रामा	-3083
▁गोर	-3084
ग्राही	-3085
▁प्रवक्ता	-3086
ीया	-3087
▁आय	-3088
र्चा	-3089
▁बढाउन	-3090
▁बनेका	-3091
▁पोखरामा	-3092
बिन	-3093
▁फल	-3094
▁छिम	-3095
▁स्थानिय	-3096
▁प्रतिनिधिसभा	-3097
पनी	-3098
▁ढि	-3099
िएका	-3100
▁पाउन	-3101
ज्ञानिक	-3102
कलाई	-3103
▁कल	-3104
▁संसद्	-3105
▁सम्भव	-3106
▁पाकिस्ता	-3107
!!	-3108
ारु	-3109
▁बुट	-3110
▁शेर	-3111
▁संयन्त्र	-3112
▁रमा	-3113
स्ट्र	-3114
।’	-3115
▁सहर	-3116
बीचको	-3117
▁मुक्ति	-3118
▁चाहिन्छ	-3119
बन्दी	-3120
याधीश	-3121
▁फेसबुक	-3122
▁गज	-3123
▁रूप	-3124
ेक्षा	-3125
▁सल्लाह	-3126
घाट	-3127
▁लागेका	-3128
▁आर	-3129
▁४५	-3130
▁बनाउ	-3131
▁मानिन्छ	-3132
▁आत्महत्या	-3133
▁प्रतिवेदन	-3134
लाली	-3135
▁बलियो	-3136
▁पत्रकारि	-3137
▁आचार्य	-3138
र्द	-3139
क्कली	-3140
▁गएका	-3141
▁स्वय	-3142
▁अनुदान	-3143
नाई	-3144
▁बैङ्क	-3145
▁मतदान	-3146
▁बैठकमा	-3147
शक्ति	-3148
▁फर्कि	-3149
▁परिषद्	-3150
यिका	-3151
▁अग्	-3152
▁जुनसुकै	-3153
▁पठा	-3154
लिएको	-3155
▁दिपा	-3156
▁पञ्च	-3157
रीक्षक	-3158
▁नतिजा	-3159
▁न्युज	-3160
▁सजिलो	-3161
▁भक्तपुर	-3162
▁केन्द्रित	-3163
▁आधा	-3164
घर	-3165
ुरू	-3166
त्ती	-3167
▁बसो	-3168
▁बोला	-3169
▁पोखरेल	-3170
▁हाम्रा	-3171
▁लोकतन्त्र	-3172
यौं	-3173
देवी	-3174
ेदार	-3175
▁गायक	-3176
▁तपाइ	-3177
▁कविता	-3178
▁ल्याएर	-3179
▁एमालेको	-3180
मिला	-3181
रीका	-3182
कारको	-3183
▁तथ्य	-3184
▁मधेसी	-3185
▁नक्कली	-3186
▁मनोरञ्	-3187
▁सहभागिता	-3188
ःख	-3189
र्घ	-3190
▁पाएका	-3191
▁पुँजी	-3192
▁टोलीले	-3193
▁भारतले	-3194
▁स्वदेश	-3195
▁कहि	-3196
▁विजयी	-3197
▁सम्पर्क	-3198
▁दशक	-3199
▁बच्चा	-3200
▁सजिलै	-3201
▁गन्तव्य	-3202
▁ल्याएको	-3203
िल	-3204
▁अह	-3205
गञ्ज	-3206
▁नोट	-3207
▁पाए	-3208
▁बढि	-3209
▁हिजो	-3210
सल	-3211
टिङ	-3212
▁नो	-3213
▁अस्पतालमा	-3214
▁सुरक्षित	-3215
छु	-3216
साथ	-3217
▁अम	-3218
▁आप	-3219
▁जुट	-3220
▁सर्त	-3221
▁फाइदा	-3222
शोर	-3223
टीका	-3224
▁आफु	-3225
पयोग	-3226
▁सही	-3227
▁छिन्	-3228
▁प्रतिष्ठ	-3229
▁नगरपालिकाले	-3230
म्दानी	-3231
▁गाई	-3232
पान्तरण	-3233
▁कारवाही	-3234
हण	-3235
▁क्लिक	-3236
▁सुदूरपश्चिम	-3237
▁पे	-3238
कोटा	-3239
▁गएर	-3240
▁भरि	-3241
▁साझ	-3242
तियार	-3243
▁अधिवेशन	-3244
ha	-3245
त्सव	-3246
▁वीर	-3247
चौ	-3248
▁मू	-3249
मावली	-3250
▁पुग्यो	-3251
▁हस्ताक्षर	-3252
▁कर्मचारीको	-3253
▁हुँ	-3254
▁साँझ	-3255
सिन्दा	-3256
▁उहाँको	-3257
▁प्रारम्भ	-3258
नाव	-3259
नेको	-3260
▁तिनी	-3261
▁पार्न	-3262
▁सूर्य	-3263
▁दिइएको	-3264
▁सम्वन्ध	-3265
ाइने	-3266
ेन्स	-3267
▁माल	-3268
▁पाण्ड	-3269
▁गठबन्ध	-3270
▁आह	-3271
▁अन्	-3272
▁खड्का	-3273
▁सिन्धु	-3274
▁हिँड्न	-3275
▁एमाओवादी	-3276
▁प्रतिबद्ध	-3277
णी	-3278
ज्ञा	-3279
▁अंग	-3280
▁बाग	-3281
▁मर्	-3282
धानिक	-3283
डर	-3284
▁सजा	-3285
▁लामा	-3286
▁होटल	-3287
▁बन्दोब	-3288
▁अत्यन्त	-3289
▁वर्षअघि	-3290
▁नेतृत्वको	-3291
▁संविधानको	-3292
▁सङ्घीय	-3293
राख	-3294
▁नब	-3295
▁उपयुक्त	-3296
भाविक	-3297
▁आवाज	-3298
▁तिमी	-3299
▁भ्या	-3300
▁फिर्ता	-3301
it	-3302
▁खाना	-3303
▁हेर्ने	-3304
▁बिस्त	-3305
▁अनुमान	-3306
▁अधिकारीले	-3307
▁३५	-3308
जुली	-3309
ालयमा	-3310
▁न्यून	-3311
▁समग्र	-3312
▁तथ्यांक	-3313
▁दैनिकको	-3314
छो	-3315
कुद	-3316
▁अग	-3317
▁धान	-3318
दिएको	-3319
नेटमा	-3320
▁तराई	-3321
▁होस्	-3322
पचारिक	-3323
▁वाणिज्य	-3324
▁S	-3325
▁सौ	-3326
वार्ड	-3327
▁संस्थाले	-3328
▁लोकतान्त्रिक	-3329
▁रस	-3330
▁बिना	-3331
▁गरेकी	-3332
▁बमोजिम	-3333
▁भनिएको	-3334
▁एल	-3335
ट्टी	-3336
बासीले	-3337
▁अभ्यास	-3338
▁गुल्मी	-3339
▁स्थिति	-3340
▁m	-3341
▁४८	-3342
क्ने	-3343
▁समाजमा	-3344
▁बन्दोबस्त	-3345
▁रंग	-3346
▁बन्दै	-3347
▁आम्दानी	-3348
▁वाम	-3349
▁स्म	-3350
▁जनताले	-3351
▁नसक्ने	-3352
▁पोर्टल	-3353
▁मोबाइल	-3354
▁उनीहरुले	-3355
▁साधन	-3356
▁प्राय	-3357
▁हुनसक्	-3358
रका	-3359
▁तर्	-3360
▁नभए	-3361
▁पाइएको	-3362
▁व्यवसायीले	-3363
छी	-3364
रले	-3365
▁दुःख	-3366
▁मेगा	-3367
▁अभिनय	-3368
▁मार्ग	-3369
▁कम्पनीको	-3370
▁प्रदेशसभा	-3371
▁एवम्	-3372
▁कानुनी	-3373
▁परिणाम	-3374
▁अहिलेको	-3375
▁पुरस्कार	-3376
▁हिसाबले	-3377
▁नकारात्मक	-3378
डे	-3379
रान	-3380
▁दाय	-3381
▁खेलकुद	-3382
▁श्रीमती	-3383
▁Re	-3384
▁मले	-3385
▁मेल	-3386
परेको	-3387
▁गरियो	-3388
▁युवती	-3389
▁एशोसिए	-3390
▁सन्देश	-3391
देख	-3392
▁वस	-3393
प्रतिनि	-3394
क्य	-3395
ोका	-3396
▁महिनामा	-3397
▁विश्वको	-3398
नीय	-3399
ित्त	-3400
▁विनि	-3401
▁पर्या	-3402
▁उदाहरण	-3403
▁परीक्षण	-3404
▁कार्यालयमा	-3405
काउ	-3406
रिक	-3407
नलमा	-3408
▁मोटर	-3409
▁बहिनी	-3410
▁भारतमा	-3411
en	-3412
चु	-3413
ज्	-3414
▁उजु	-3415
▁बिश	-3416
▁दिउँ	-3417
▁निधन	-3418
अधिकार	-3419
▁दशमलव	-3420
▁सबैलाई	-3421
▁देखाएको	-3422
▁निकायले	-3423
मध	-3424
▁अथ	-3425
▁पहल	-3426
▁पर्न	-3427
▁किशोर	-3428
▁थालेका	-3429
st	-3430
ेसन	-3431
ञ्जु	-3432
स्टर	-3433
▁आलो	-3434
▁आकाश	-3435
▁गाउँमा	-3436
▁भएकोले	-3437
▁भद्रगोल	-3438
▁दोहो	-3439
▁मुलुकको	-3440
▁इट	-3441
जस्तो	-3442
धुनिक	-3443
▁पुर्या	-3444
▁मानवीय	-3445
पोर्ट	-3446
▁दिएर	-3447
▁सेयर	-3448
▁शीर्ष	-3449
▁सुनको	-3450
▁अवधिमा	-3451
▁जीवनमा	-3452
▁प्रहार	-3453
▁प्रावधान	-3454
▁विराटनगर	-3455
आजको	-3456
▁दुख	-3457
रिक्त	-3458
▁थुप्र	-3459
नुभएका	-3460
▁मित्र	-3461
▁कुरामा	-3462
▁आयोजनामा	-3463
▁कार्यालयका	-3464
आफ	-3465
▁आयोगले	-3466
▁बालुवा	-3467
▁कार्यरत	-3468
▁A	-3469
ब्जा	-3470
▁गाँ	-3471
▁ट्रम्प	-3472
भिडियोसहित	-3473
वाई	-3474
साई	-3475
हरा	-3476
▁जग	-3477
▁हे	-3478
लम्ब	-3479
▁दबा	-3480
▁भत्	-3481
▁टीका	-3482
▁अतिरिक्त	-3483
▁लहान	-3484
▁साझा	-3485
▁ग्राह	-3486
▁हेर्दा	-3487
होर	-3488
ालका	-3489
▁आएर	-3490
▁आया	-3491
▁अर्य	-3492
▁रत्न	-3493
▁लगाउन	-3494
▁यात्रु	-3495
▁लिमि	-3496
▁पहाडी	-3497
▁तन	-3498
▁आदर्श	-3499
▁जीवनका	-3500
▁निश्चित	-3501
▁च्याम्पियन	-3502
▁खन	-3503
▁नस	-3504
श्रम	-3505
▁जेल	-3506
▁छिमेकी	-3507
ep	-3508
▁बद	-3509
▁जनकपुर	-3510
▁राम्रा	-3511
▁हालसम्म	-3512
▁उनीहरुको	-3513
▁कहिलेदेखि	-3514
▁नेतृत्वमा	-3515
▁७०	-3516
टाएको	-3517
नेकपा	-3518
▁जसमा	-3519
▁तरिका	-3520
▁पट्यार	-3521
▁कहिल्यै	-3522
▁ढुक्कसँग	-3523
▁संस्थाका	-3524
िमिर	-3525
▁रहेर	-3526
प्रधान	-3527
▁अनुरोध	-3528
▁अदालतले	-3529
▁बन्दोबस्तको	-3530
▁अप्र	-3531
’,	-3532
▁पुराना	-3533
▁पोर्टलले	-3534
▁पट्यारलाग्दो	-3535
किङ	-3536
फिक	-3537
दछन्	-3538
▁सुख	-3539
▁भनेका	-3540
▁वैदेशिक	-3541
▁बासिन्दा	-3542
▁रन	-3543
▁बढ्न	-3544
▁हासिल	-3545
▁अने	-3546
▁घरेलु	-3547
▁सुदुर	-3548
▁काठमाडौंबासीले	-3549
पे	-3550
▁दोष	-3551
▁पहु	-3552
▁अध्यय	-3553
▁पात्र	-3554
▁अवार्ड	-3555
▁फ्रान्स	-3556
▁लिमिटेड	-3557
▁सरो	-3558
मानित	-3559
▁दिउँसो	-3560
▁रहेछन्	-3561
▁बताइएको	-3562
रोह	-3563
▁झि	-3564
▁०७	-3565
▁केटी	-3566
▁उद्घाटन	-3567
▁देखिएका	-3568
ंकर	-3569
भेद	-3570
हीन	-3571
लागि	-3572
▁भर्ना	-3573
▁भन्सार	-3574
▁खानेपानी	-3575
▁विशेषज्ञ	-3576
▁अर्थतन्त्र	-3577
ुट्	-3578
्वी	-3579
कामना	-3580
तालाई	-3581
बाहेक	-3582
▁सिने	-3583
▁दीर्घ	-3584
जुङ	-3585
▁भोग	-3586
▁महत्	-3587
▁उपाधि	-3588
▁गरिनेछ	-3589
▁विश्वमा	-3590
▁बढ्	-3591
▁प्ला	-3592
दिने	-3593
▁दिवस	-3594
▁वर्षदेखि	-3595
ारको	-3596
▁खण्ड	-3597
▁धादि	-3598
▁सञ्जाल	-3599
▁बसेर	-3600
▁पारेको	-3601
▁रण	-3602
▁सबैले	-3603
▁बाहिरि	-3604
▁यथार्थ	-3605
▁प्रकाशन	-3606
▁हस्तकला	-3607
पया	-3608
▁लम	-3609
म्बु	-3610
राको	-3611
▁उडान	-3612
▁बीमा	-3613
▁विना	-3614
▁सल	-3615
▁उपम	-3616
▁केटा	-3617
▁भएपनि	-3618
▁सडकमा	-3619
सके	-3620
▁भाष	-3621
▁तिनको	-3622
▁नगद	-3623
रुपमा	-3624
▁लगाएको	-3625
रूप	-3626
ानि	-3627
क्कै	-3628
नियर	-3629
▁नभई	-3630
हरूका	-3631
▁सर्वा	-3632
▁डाक्टर	-3633
▁नम	-3634
गाउँ	-3635
▁श्रील	-3636
प्रतिनिधि	-3637
▁त्यसैगरी	-3638
▁N	-3639
रहे	-3640
▁केसी	-3641
▁क्रा	-3642
▁चासो	-3643
▁युनि	-3644
▁गाविस	-3645
▁दिपायल	-3646
▁ब्राण्ड	-3647
▁प्रदेशका	-3648
at	-3649
एक	-3650
▁कुमार	-3651
▁सम्मेलन	-3652
▁सत्ता	-3653
▁विभागले	-3654
▁व्यापारी	-3655
मल	-3656
रे	-3657
नाल्	-3658
▁संविधानसभा	-3659
विद्यु	-3660
ब्र	-3661
▁घिमिर	-3662
▁विश्वकप	-3663
▁मनोरञ्जन	-3664
र्ब	-3665
▁चैत	-3666
भित्रै	-3667
▁पाउँछ	-3668
▁हिन्द	-3669
▁हिन्दु	-3670
द्व	-3671
▁थुप्रै	-3672
▁अपेक्षा	-3673
▁फ्	-3674
▁उचित	-3675
▁भन्छ	-3676
▁गतिविधि	-3677
▁पदाधिका	-3678
लुङ	-3679
▁छौँ	-3680
▁बढाउने	-3681
व्र	-3682
ियम	-3683
▁कडा	-3684
▁निर्धारण	-3685
ंगो	-3686
▁एश	-3687
भिजन	-3688
▁नष्ट	-3689
▁लक्ष्मी	-3690
▁सरकारका	-3691
च्छा	-3692
टीमा	-3693
▁कहाँ	-3694
▁लिएका	-3695
▁बताएको	-3696
▁संग्रह	-3697
▁लगानीकर्ता	-3698
or	-3699
र्ख	-3700
▁बग	-3701
▁मण्ड	-3702
▁पहुँच	-3703
▁प्रकारका	-3704
शाली	-3705
▁हैन	-3706
▁प्रकृति	-3707
▁सरकारलाई	-3708
डोर	-3709
▁डिज	-3710
▁बसोबास	-3711
वाइ	-3712
क्रो	-3713
▁हालै	-3714
▁प्रवद्र्	-3715
दन	-3716
न्टर	-3717
▁वर्षे	-3718
▁त्यस्ता	-3719
▁क्षेत्रले	-3720
▁सांस्कृतिक	-3721
चक	-3722
▁रौ	-3723
▁क्यान्स	-3724
▁समाजवादी	-3725
▁युरो	-3726
▁निर्वाह	-3727
हीँ	-3728
प्ले	-3729
▁घटनाको	-3730
▁वर्षीया	-3731
ताबाट	-3732
▁नहोस्	-3733
▁महोत्सव	-3734
ore	-3735
मारी	-3736
▁बेप	-3737
▁२०७२	-3738
▁मञ्जु	-3739
▁विज्ञान	-3740
▁l	-3741
ट्न	-3742
▁शव	-3743
▁सार	-3744
लार्इ	-3745
▁निर्यात	-3746
▁काठमाण्ड	-3747
▁तल	-3748
ट्या	-3749
लगढी	-3750
▁पछा	-3751
▁सचेत	-3752
▁निजगढ	-3753
राइ	-3754
श्र	-3755
मण्ड	-3756
▁हित	-3757
▁तनहुँ	-3758
▁संसदीय	-3759
▁३२	-3760
▁कपि	-3761
▁सोध	-3762
▁अथवा	-3763
▁कैलाली	-3764
▁उनीहरूले	-3765
▁राजमार्ग	-3766
▁९०	-3767
िकास	-3768
▁चीनको	-3769
▁दिनको	-3770
▁बाहेक	-3771
▁नहुँदा	-3772
▁यहाँका	-3773
▁विकल्प	-3774
▁तपाईंको	-3775
▁उनीहरूको	-3776
रव	-3777
▁दम	-3778
ल्पा	-3779
▁पूर	-3780
▁विकासमा	-3781
पात	-3782
▁तिर	-3783
▁इमान	-3784
▁भित्	-3785
▁उजुरी	-3786
▁छुट्टै	-3787
▁श्रीमान	-3788
र्दै	-3789
सिंह	-3790
▁यता	-3791
▁रहन	-3792
▁अन्न	-3793
▁ट्या	-3794
▁सङ्ग	-3795
▁गर्नेछ	-3796
▁प्रतिशतले	-3797
▁मन्त्रिपरिषद्	-3798
त्सा	-3799
▁तलब	-3800
▁झापा	-3801
▁राहत	-3802
▁सरोकार	-3803
▁प्रतियोगिताको	-3804
ढु	-3805
▁कट	-3806
▁ढंग	-3807
▁जनजा	-3808
▁वैज्ञानिक	-3809
ईको	-3810
▁८०	-3811
ारीमा	-3812
▁करीब	-3813
▁विजय	-3814
▁कम्तीमा	-3815
त्तै	-3816
▁गुट	-3817
▁नुवा	-3818
▁सजाय	-3819
▁डी	-3820
र्सि	-3821
श्रो	-3822
▁चलन	-3823
वार्य	-3824
▁आउँछ	-3825
▁भेगमा	-3826
▁त्रिभु	-3827
▁तुलनामा	-3828
▁महेन्द्र	-3829
▁शुभकामना	-3830
ण्डै	-3831
▁बढा	-3832
▁रेख	-3833
▁महसु	-3834
▁अपहरण	-3835
▁समृद्ध	-3836
▁विदेशमा	-3837
▁संक्रमण	-3838
ितो	-3839
वर्ष	-3840
वाला	-3841
र्फत्	-3842
▁चीनले	-3843
▁मध्यप	-3844
▁अघिल्लो	-3845
ख्य	-3846
चोक	-3847
जुमा	-3848
▁सुनु	-3849
▁अष्ट्र	-3850
▁प्रदेशको	-3851
▁प्रधानमन्त्रीले	-3852
▁n	-3853
▁उन	-3854
▁सट	-3855
▁भरत	-3856
▁मला	-3857
▁मजदुर	-3858
▁मुक्त	-3859
▁विस्तृत	-3860
▁विद्यार्थ	-3861
डको	-3862
िन्	-3863
▁आउँ	-3864
▁पश्च	-3865
▁गोरखा	-3866
▁सुदुरपश्चिम	-3867
ेशन	-3868
▁झु	-3869
▁पुस	-3870
▁मेट	-3871
मुक्त	-3872
▁नगर्ने	-3873
▁व्यक्तिगत	-3874
ँसी	-3875
ष्णु	-3876
▁मोर	-3877
▁तारा	-3878
▁धनगढी	-3879
▁सुरुङ	-3880
भूत	-3881
▁सफा	-3882
▁दबाब	-3883
▁२०१८	-3884
▁युद्ध	-3885
▁गर्नुहोस	-3886
वनको	-3887
स्थल	-3888
▁भेला	-3889
▁राख्	-3890
▁विकासको	-3891
▁अनिवार्य	-3892
सङ्	-3893
▁on	-3894
▁कमी	-3895
▁बस्न	-3896
▁मुटु	-3897
▁रासस	-3898
▁किनभने	-3899
▁पार्टीले	-3900
मिक	-3901
▁कतै	-3902
▁पृथ	-3903
▁ठुलो	-3904
▁रोपनी	-3905
तर	-3906
तु	-3907
श्वर	-3908
्वाइ	-3909
▁सकेन	-3910
▁सुशा	-3911
▁क्रान्ति	-3912
▁काठमाडौँको	-3913
▁कार्यान्वयनमा	-3914
▁यिन	-3915
▁उद्य	-3916
▁टेक्	-3917
▁अदालत	-3918
▁भावना	-3919
▁मिनेट	-3920
▁बेपत्ता	-3921
▁स्वीकार	-3922
▁७५	-3923
▁काउ	-3924
▁चेत	-3925
▁भीम	-3926
▁ढकाल	-3927
▁दलका	-3928
▁दिशा	-3929
▁यिनी	-3930
सकेपछि	-3931
▁चिन्ता	-3932
▁जलविद्यु	-3933
▁तु	-3934
▁भनिन्छ	-3935
▁तर्जुमा	-3936
▁प्रतिबद्धता	-3937
विर	-3938
्याउन	-3939
▁देशभर	-3940
▁आजदेखि	-3941
▁हिन्दू	-3942
▁समुदायको	-3943
ीक	-3944
एमा	-3945
भरि	-3946
▁जहा	-3947
ीकृत	-3948
▁दिनुपर्ने	-3949
▁मानवअधिकार	-3950
▁विद्यालयमा	-3951
तक	-3952
हामी	-3953
▁जनाले	-3954
▁नजिकै	-3955
ल्यान्ड	-3956
▁उपस्थित	-3957
ोषण	-3958
बजार	-3959
▁झन्	-3960
कृष्ण	-3961
▁विश्वका	-3962
७४	-3963
दको	-3964
▁मर्म	-3965
▁त्यसका	-3966
▁पौडेलले	-3967
▁हुन्थ्यो	-3968
ठो	-3969
ेवार	-3970
▁उठा	-3971
▁अपना	-3972
▁महाधि	-3973
▁विष्ट	-3974
▁दिल्ली	-3975
▁पुरुवा	-3976
▁त्रिभुवन	-3977
चो	-3978
▁आस	-3979
▁ऊर्जा	-3980
▁झण्डै	-3981
▁प्रचल	-3982
▁विक्री	-3983
दम	-3984
रिय	-3985
लीमा	-3986
▁माथ	-3987
▁भनाई	-3988
▁हावा	-3989
▁स्टार	-3990
▁गराएको	-3991
▁उपस्थिति	-3992
पथ	-3993
किने	-3994
▁गल्	-3995
▁वास्तविक	-3996
▁तर्क	-3997
▁अर्थात	-3998
▁आधुनिक	-3999
▁महिलाले	-4000
▁प्रहरीको	-4001
▁मन्त्रालयका	-4002
फोन	-4003
न्ती	-4004
▁निग	-4005
▁व्यस्त	-4006
▁रुपान्तरण	-4007
▁व्यक्तिको	-4008
▁शेरबहादुर	-4009
▁रेक	-4010
▁क्रि	-4011
▁नभएका	-4012
व्यक्ति	-4013
▁निर्माणमा	-4014
▁वर	-4015
ड्ने	-4016
रुवा	-4017
ेलिक	-4018
▁भूमि	-4019
▁बोकेर	-4020
▁सर्वे	-4021
▁सालको	-4022
▁छानबिन	-4023
▁औपचारिक	-4024
▁नेपालकै	-4025
जनक	-4026
सला	-4027
▁पास	-4028
▁सीप	-4029
▁असक्षम	-4030
,”	-4031
चर	-4032
क्रा	-4033
▁चयन	-4034
हरूसँग	-4035
▁जिम्मा	-4036
▁मोर्चा	-4037
▁अन्तर्वार्ता	-4038
टिल	-4039
म्ला	-4040
▁भैरह	-4041
▁मौलिक	-4042
▁विकेट	-4043
▁आरोपमा	-4044
▁तपाईको	-4045
▁कोइराला	-4046
▁रामेछाप	-4047
निङ	-4048
मुना	-4049
र्खा	-4050
▁चौथो	-4051
▁बेलु	-4052
▁सेमि	-4053
▁मान्दै	-4054
▁आयोजनाको	-4055
▁नियमावली	-4056
▁सम्मेलनमा	-4057
७५	-4058
म्स	-4059
▁अलि	-4060
▁जोग	-4061
▁खुशी	-4062
र्माले	-4063
ेही	-4064
चन्द्र	-4065
▁त्यसले	-4066
▁क्याम्प	-4067
▁केन्द्रमा	-4068
नन्	-4069
▁एम	-4070
▁उदय	-4071
▁टाइ	-4072
▁ठमेल	-4073
▁शासन	-4074
▁कर्जा	-4075
▁आलोचना	-4076
▁गर्‍यो	-4077
▁निराशा	-4078
▁तयारीमा	-4079
▁महत्वको	-4080
▁गरिसकेको	-4081
फर	-4082
भे	-4083
▁सब	-4084
ाउको	-4085
▁ब्याज	-4086
▁स्थायी	-4087
▁भन्नाले	-4088
खेल	-4089
जुर	-4090
वात	-4091
▁बिच	-4092
▁Read	-4093
▁दाजु	-4094
▁आफन्त	-4095
▁बुटवल	-4096
लिया	-4097
▁कुव	-4098
▁होट	-4099
▁बिदा	-4100
▁सटही	-4101
▁नदीले	-4102
▁देवकोटा	-4103
▁’	-4104
ियर	-4105
▁३४	-4106
संँग	-4107
्रोल	-4108
प्रिय	-4109
श्वरी	-4110
ारायण	-4111
▁लगाएर	-4112
▁सञ्चालक	-4113
▁छौ	-4114
▁बैशाख	-4115
▁जतिसुकै	-4116
▁नुवाकोट	-4117
▁बताउनुभएको	-4118
▁जनप्रतिनिधि	-4119
समि	-4120
▁सिनेमा	-4121
▁प्रवृत्ति	-4122
▁कम्युनिस्ट	-4123
▁नभएर	-4124
▁विपन्न	-4125
▁जय	-4126
र्नु	-4127
▁खाल्	-4128
▁दुरु	-4129
▁मासु	-4130
▁इलाका	-4131
▁विन्ड	-4132
▁सीमित	-4133
▁दोश्रो	-4134
▁महत्त्व	-4135
▁प्रशिक्षण	-4136
ेदन	-4137
▁पृष्ठ	-4138
▁राजदू	-4139
्म	-4140
गार	-4141
वमा	-4142
तीको	-4143
▁कमल	-4144
▁एसएल	-4145
▁जमिन	-4146
▁बाँच	-4147
सिलगढी	-4148
▁बुझ्न	-4149
▁ट्राभल	-4150
▁यहाँको	-4151
▁बौद्धिक	-4152
▁महासंघले	-4153
न्थ	-4154
▁जसको	-4155
▁मलासी	-4156
▁संघर्ष	-4157
▁पर्याप्त	-4158
कट	-4159
क्या	-4160
हाडी	-4161
▁रक्त	-4162
▁सप्त	-4163
▁बिभिन्न	-4164
▁दुर्घटनामा	-4165
घु	-4166
ल्ज	-4167
ौली	-4168
▁एफ	-4169
▁पं	-4170
पुग्	-4171
सेवा	-4172
▁उत्प	-4173
▁छिटो	-4174
▁फुटब	-4175
वित	-4176
▁टी	-4177
▁उनि	-4178
▁व्र	-4179
▁मौसम	-4180
▁साल्	-4181
▁उत्सा	-4182
▁सातौं	-4183
▁ट्राफिक	-4184
▁बुद्धनगर	-4185
▁स्वीकृति	-4186
िकल	-4187
ौला	-4188
डीले	-4189
▁पदक	-4190
▁मिल	-4191
▁धादिङ	-4192
▁रसुवा	-4193
▁भाषामा	-4194
▁व्यक्तिलाई	-4195
्याल	-4196
▁अनिय	-4197
▁रातो	-4198
▁अभिने	-4199
▁पाइने	-4200
▁विभेद	-4201
▁हेर्नुहोस	-4202
कमल	-4203
ेषण	-4204
ट्टा	-4205
▁ट्रे	-4206
▁पढ्न	-4207
▁पुस्ता	-4208
▁कांग्रेसका	-4209
ंदै	-4210
▁रम	-4211
ङ्गल	-4212
न्ध्र	-4213
रीलाई	-4214
▁मनमा	-4215
▁अत्या	-4216
▁विजेता	-4217
▁मलेसिया	-4218
ूट	-4219
भारत	-4220
.....	-4221
▁गोली	-4222
▁भनिन्	-4223
▁महसुस	-4224
▁लक्षित	-4225
▁परिस्थिति	-4226
सै	-4227
▁चलि	-4228
नैतिक	-4229
▁तीव्र	-4230
▁आफूहरुको	-4231
शै	-4232
com	-4233
▁लेखक	-4234
▁शरीर	-4235
▁समारोह	-4236
▁विन्डोज	-4237
▁वे	-4238
शाला	-4239
▁अनेक	-4240
▁फोरम	-4241
▁साझेद	-4242
▁बनाएका	-4243
▁नियुक्त	-4244
कोण	-4245
▁अर	-4246
नीति	-4247
▁परे	-4248
▁चालक	-4249
▁फेला	-4250
▁दिनुपर्छ	-4251
ल्ड	-4252
जन्य	-4253
पदण्ड	-4254
▁ज्ञापन	-4255
▁एशोसिएसन	-4256
▁नआ	-4257
▁विभा	-4258
▁शुरू	-4259
▁खेल्ने	-4260
▁संस्करण	-4261
ou	-4262
▁B	-4263
जिङ	-4264
०७६	-4265
▁मी	-4266
नाका	-4267
▁सिट	-4268
पुरका	-4269
▁चिया	-4270
▁नाटक	-4271
▁कुकुर	-4272
▁भत्ता	-4273
▁विधिवत	-4274
▁सेमिफाइ	-4275
▁मुस्	-4276
▁भैरहवा	-4277
▁सहयोगमा	-4278
क्सी	-4279
▁मेड	-4280
▁चन्द	-4281
▁बिषय	-4282
▁बस्ती	-4283
▁पन्ध्र	-4284
▁यसैगरी	-4285
▁हुनाले	-4286
”,	-4287
िकार	-4288
सहितको	-4289
▁संघका	-4290
▁सकिएको	-4291
▁जोडिएको	-4292
▁प्रशिक्षक	-4293
▁प्रस्तावित	-4294
▁प्रतिक्रिया	-4295
प्रधानमन्त्री	-4296
▁M	-4297
जसो	-4298
महि	-4299
नुपा	-4300
्वान	-4301
▁सिक	-4302
▁भएमा	-4303
▁आएपछि	-4304
▁त्यसो	-4305
▁गणतन्त्र	-4306
डिङ	-4307
दीको	-4308
▁एसएलसी	-4309
▁आपूर्ति	-4310
▁बुझाएको	-4311
▁मापदण्ड	-4312
▁मानिसहरु	-4313
▁व्यवस्थित	-4314
▁अष्ट्रेलिया	-4315
लाम	-4316
पर्छ	-4317
▁भोट	-4318
▁सूच	-4319
▁दिला	-4320
▁नारी	-4321
▁बुढा	-4322
▁भोलि	-4323
िरहेको	-4324
▁स्वार्थ	-4325
प्प	-4326
▁दस	-4327
कालमा	-4328
▁सवाल	-4329
▁प्रष्ट	-4330
▁राख्नु	-4331
▁पुष्पकमल	-4332
▁कार्यविधि	-4333
▁विश्लेषणलाई	-4334
▁हरु	-4335
▁जान्छ	-4336
▁रेकर्ड	-4337
▁मध्यपहाडी	-4338
ालु	-4339
्चोक	-4340
▁ल्याइ	-4341
▁प्रतिष्ठान	-4342
▁गाउँपालिकाको	-4343
लक	-4344
उँदा	-4345
ह्रो	-4346
▁एकप	-4347
▁१९९	-4348
ियाली	-4349
▁हुदै	-4350
▁रोजगार	-4351
▁समर्थन	-4352
ok	-4353
▁दुबै	-4354
▁बसेका	-4355
वैधानिक	-4356
▁गतेसम्म	-4357
▁सर्तहरू	-4358
▁कार्यालयको	-4359
▁T	-4360
दिए	-4361
धनको	-4362
ामुख	-4363
क्षेप	-4364
▁दशैं	-4365
▁माछा	-4366
▁सम्प्र	-4367
▁क्यान्सर	-4368
ठी	-4369
ूहिक	-4370
▁गाउ	-4371
▁निः	-4372
▁स्थल	-4373
न्देही	-4374
▁खालका	-4375
▁उद्धार	-4376
▁राखेका	-4377
▁मिनेटमा	-4378
▁सङ्ख्या	-4379
विन	-4380
▁आउनु	-4381
नुपातिक	-4382
नेन्द्र	-4383
▁मक	-4384
▁धनी	-4385
▁घरको	-4386
▁टिप्	-4387
पाल्चोक	-4388
▁नेपालीको	-4389
▁सर्वेक्षण	-4390
▁कांग्रेसको	-4391
▁सम्भाव्यता	-4392
▁f	-4393
ंगु	-4394
ताब	-4395
ल्नु	-4396
▁बहस	-4397
▁कामको	-4398
▁बस्दै	-4399
▁उपमहान	-4400
▁एकीकृत	-4401
▁समेट्छ	-4402
▁सुनकोशी	-4403
ङक	-4404
ईमा	-4405
िनो	-4406
▁एकल	-4407
▁२०४	-4408
ज्यालो	-4409
▁मनाउन	-4410
▁आयामका	-4411
जे	-4412
लिङ	-4413
▁अख्	-4414
▁तोक	-4415
▁क्रो	-4416
▁उसलाई	-4417
▁कुवेत	-4418
▁जातीय	-4419
▁दिन्छ	-4420
▁यसबाट	-4421
▁सर्वाधिक	-4422
ृति	-4423
▁राणा	-4424
▁माध्यमबाट	-4425
होरा	-4426
मासिक	-4427
▁कृपया	-4428
▁प्रमाणपत्र	-4429
ed	-4430
ंकन	-4431
यमा	-4432
खण्ड	-4433
प्रा	-4434
लोकन	-4435
▁खार	-4436
नीतिक	-4437
▁भेटि	-4438
▁साट्न	-4439
▁मुस्ता	-4440
▁मानिसको	-4441
▁सामूहिक	-4442
▁समानुपातिक	-4443
हिटी	-4444
▁यसो	-4445
▁सरस	-4446
▁निकट	-4447
▁घटाएको	-4448
▁मुद्रा	-4449
▁आकर्षित	-4450
▁सम्झौतालाई	-4451
लेस	-4452
▁हल	-4453
▁काभ	-4454
▁क्य	-4455
▁छुने	-4456
म्बिनी	-4457
▁भन्नु	-4458
▁सम्पदा	-4459
▁गुरुङको	-4460
लाग	-4461
ईएको	-4462
जाने	-4463
वक्ता	-4464
▁ढंगले	-4465
▁बैंकको	-4466
▁तोकिएको	-4467
▁समयदेखि	-4468
▁इमानदारी	-4469
धै	-4470
▁बरु	-4471
▁जाति	-4472
▁ब्लग	-4473
▁बर्दि	-4474
▁उज्यालो	-4475
▁नियुक्ति	-4476
▁काल	-4477
▁छोटो	-4478
▁यद्य	-4479
▁खाद्य	-4480
▁चाहन्छ	-4481
▁बंगलादेश	-4482
▁संस्थाको	-4483
▁३३	-4484
वानी	-4485
▁टिक	-4486
▁समी	-4487
▁जाँच	-4488
▁पुस्तक	-4489
▁बेलायत	-4490
▁मन्त्रालयको	-4491
मय	-4492
धारा	-4493
▁नया	-4494
▁हाइ	-4495
▁more	-4496
▁जटिल	-4497
▁मकवान	-4498
▁अभिभाव	-4499
▁अवस्थित	-4500
▁राज्यले	-4501
▁सिन्धुपाल्चोक	-4502
टाङ	-4503
ङ्गो	-4504
▁कोठा	-4505
▁अगाडी	-4506
▁रक्षा	-4507
▁हत्यामा	-4508
▁निरन्तरता	-4509
१८	-4510
स्को	-4511
▁आवास	-4512
▁टाढा	-4513
▁व्रत	-4514
▁खेल्न	-4515
टार	-4516
गरमा	-4517
▁मौका	-4518
▁स्ना	-4519
▁जाँदै	-4520
▁भट्टले	-4521
ri	-4522
▁दिय	-4523
▁जहाज	-4524
▁दिदी	-4525
▁२०७१	-4526
▁उपभोग	-4527
▁टाउको	-4528
▁भाद्र	-4529
▁मिश्र	-4530
▁बुझाउँछ	-4531
▁महासचिव	-4532
▁आन्दोलनमा	-4533
व्	-4534
हरी	-4535
▁करा	-4536
▁हजुर	-4537
▁सन्ता	-4538
▁लगातार	-4539
▁शर्माले	-4540
▁प्रहरीलाई	-4541
१५	-4542
पणी	-4543
ेमी	-4544
▁खस	-4545
▁छै	-4546
ामीण	-4547
▁श्रा	-4548
▁सोलु	-4549
▁हस्तान्तरण	-4550
उड	-4551
डाइ	-4552
वीर	-4553
▁गजल	-4554
गोलिक	-4555
जस्तै	-4556
▁शाही	-4557
▁सुवे	-4558
▁बेल्ज	-4559
▁वृद्ध	-4560
▁ग्रामीण	-4561
▁द्वन्द्वको	-4562
▁विमानस्थलमा	-4563
न्धि	-4564
वहार	-4565
▁तेल	-4566
▁बिग	-4567
▁केवल	-4568
▁रोशी	-4569
▁बेँसी	-4570
▁युरोप	-4571
▁म्याग्	-4572
▁एकजनाले	-4573
▁संवैधानिक	-4574
जत	-4575
हल	-4576
▁C	-4577
िकर	-4578
जिटल	-4579
▁तार	-4580
▁सडकको	-4581
▁सैनिक	-4582
▁ठमेलमा	-4583
▁लागिएको	-4584
▁दुरुपयोग	-4585
▁परिवारलाई	-4586
▁ज्ञानेन्द्र	-4587
▁टो	-4588
हानी	-4589
▁कार्यमा	-4590
▁जनशक्ति	-4591
▁परिक्षा	-4592
▁उद्देश्यले	-4593
▁सक्नुहुन्छ	-4594
ew	-4595
जनको	-4596
▁लिइ	-4597
▁सुत्	-4598
▁थालेपछि	-4599
▁भौगोलिक	-4600
▁लोकप्रिय	-4601
▁राजधानीमा	-4602
▁नारायणहिटी	-4603
षि	-4604
▁आत	-4605
▁एच	-4606
नीको	-4607
राजा	-4608
▁हार	-4609
▁फेरी	-4610
▁साढे	-4611
▁इच्छा	-4612
▁पुगेर	-4613
▁प्रथा	-4614
▁लमजुङ	-4615
▁जनसंख्यामा	-4616
▁बन	-4617
छिन्	-4618
▁मही	-4619
▁बाढी	-4620
▁चलेको	-4621
▁विहान	-4622
▁भाडामा	-4623
▁भुक्ता	-4624
▁मेगावाट	-4625
▁महिलालाई	-4626
▁पदाधिकारी	-4627
▁घो	-4628
epal	-4629
प्ति	-4630
▁पत्ता	-4631
▁आकर्षण	-4632
▁जनालाई	-4633
▁काठमाण्डौ	-4634
▁प्रजातन्त्र	-4635
नुन्	-4636
▁वाल	-4637
▁घुम्	-4638
▁धन्य	-4639
▁आउँदा	-4640
▁जनाएका	-4641
▁लुम्बिनी	-4642
▁लाल	-4643
▁कपडा	-4644
▁अध्या	-4645
▁उपकरण	-4646
▁समेतको	-4647
खल	-4648
ल्टमा	-4649
▁जसरी	-4650
▁निको	-4651
▁हेरेर	-4652
▁अनुहार	-4653
▁कानूनी	-4654
▁उपलब्धि	-4655
▁गुरुङले	-4656
▁तथ्याङ्क	-4657
▁संग्रहालयमा	-4658
▁बाइ	-4659
▁रात	-4660
▁बनुन्	-4661
▁किन्ने	-4662
▁सम्पाद	-4663
▁साल्भा	-4664
▁विभागका	-4665
▁केन्द्रका	-4666
▁स्थानीयले	-4667
▁ते	-4668
कारण	-4669
क्कर	-4670
▁बारे	-4671
▁मद्द	-4672
▁पछाडि	-4673
▁हप्ता	-4674
▁निर्णयहरु	-4675
▁एजेन्सीबाट	-4676
▁राखिनुपर्छ	-4677
▁पुनर्निर्माण	-4678
▁खत	-4679
आफ्न	-4680
नन्द	-4681
मुखी	-4682
▁असफल	-4683
▁संचार	-4684
▁सकेका	-4685
▁दियालो	-4686
▁प्रवाह	-4687
▁पेट्रोल	-4688
▁दृष्टिकोण	-4689
वण	-4690
ुग	-4691
जान	-4692
गन्ज	-4693
न्टा	-4694
र्पण	-4695
▁छाप	-4696
कालको	-4697
▁मारि	-4698
▁रोक्न	-4699
▁राजस्व	-4700
▁उत्पन्न	-4701
▁बराबरको	-4702
▁अन्तरवार्ता	-4703
▁इमानदारीपूर्वक	-4704
भेट	-4705
सामा	-4706
▁सवै	-4707
ण्डुर	-4708
▁गणेश	-4709
▁देख्न	-4710
▁सहायक	-4711
ण्डुरसको	-4712
▁जनतालाई	-4713
▁देउवाले	-4714
▁एकपल्टमा	-4715
▁साल्भाडोर	-4716
▁होण्डुरसको	-4717
जय	-4718
ईश्वरी	-4719
▁क्यान	-4720
▁म्यान	-4721
▁अर्याल	-4722
▁पूर्वी	-4723
▁प्रसाद	-4724
▁बनाइएको	-4725
▁गइ	-4726
किलो	-4727
मुनि	-4728
व्या	-4729
२०७५	-4730
▁साब	-4731
▁झिंगु	-4732
▁फर्का	-4733
▁प्रकरण	-4734
▁मिल्ने	-4735
▁विष्णु	-4736
▁तामाङहरुले	-4737
hi	-4738
१०	-4739
▁दौ	-4740
▁थोर	-4741
▁मसा	-4742
▁सौं	-4743
▁केबल	-4744
▁खुसी	-4745
▁वासि	-4746
▁सिमा	-4747
▁बागलुङ	-4748
▁समूहले	-4749
▁सेन्टर	-4750
▁प्रशासनिक	-4751
ेशी	-4752
▁बेर	-4753
▁परिचालन	-4754
▁राजनैतिक	-4755
१२	-4756
▁बनि	-4757
पक्षी	-4758
्युटर	-4759
▁मेरा	-4760
गरेनन्	-4761
जिनियर	-4762
संस्था	-4763
▁जनजाति	-4764
▁श्रमिक	-4765
▁दायित्व	-4766
▁बाबुराम	-4767
▁प्रकारको	-4768
▁सञ्चालित	-4769
▁आत्महत्यामा	-4770
▁व्यवसायीसंँग	-4771
▁P	-4772
ण्ट	-4773
परा	-4774
▁अवै	-4775
▁शर्त	-4776
▁भारतका	-4777
▁गर्दछन्	-4778
▁भ्रमणमा	-4779
▁मोटरसाइ	-4780
▁इन्टरनेट	-4781
▁समृद्धिको	-4782
▁पत्रकारिता	-4783
▁मदि	-4784
ालिटी	-4785
▁म्यु	-4786
▁आस्था	-4787
▁बढुवा	-4788
▁बढ्दो	-4789
▁गाह्रो	-4790
▁समीक्षा	-4791
▁अन्तराष्ट्रिय	-4792
खो	-4793
चुर	-4794
स्वा	-4795
▁आशामा	-4796
शास्त्र	-4797
▁संगठित	-4798
▁स्वीकृत	-4799
षद	-4800
पोख	-4801
▁ठो	-4802
▁चोक	-4803
▁साई	-4804
▁खाली	-4805
्याउने	-4806
▁क्रमश	-4807
▁ग्राहक	-4808
▁विगतमा	-4809
▁सिमेन्ट	-4810
भेल	-4811
साम	-4812
▁चाहा	-4813
▁शंकर	-4814
▁सेवाका	-4815
ुटि	-4816
राज्य	-4817
▁सुरुङमार्ग	-4818
▁अध्यक्षतामा	-4819
▁सके	-4820
▁खोजी	-4821
▁तहका	-4822
▁चरणको	-4823
▁बताउनु	-4824
▁महिनाको	-4825
▁मात्रामा	-4826
आमा	-4827
▁मस	-4828
शैली	-4829
्रेजी	-4830
▁लगाए	-4831
▁बिशेष	-4832
▁मुल्य	-4833
▁शुद्ध	-4834
▁निःशुल्क	-4835
▁न्यायाधीश	-4836
▁पेज	-4837
▁निकु	-4838
स्तरीय	-4839
▁चाहिँ	-4840
▁साझेदारी	-4841
▁गृहमन्त्री	-4842
र्थक	-4843
▁अफि	-4844
र्खेत	-4845
▁लोका	-4846
वासीले	-4847
▁बोल्न	-4848
▁परम्परागत	-4849
ँस	-4850
ाइन	-4851
ानै	-4852
द्रो	-4853
ाइमा	-4854
▁पत्	-4855
▁मुआ	-4856
विन्द	-4857
▁पाउँ	-4858
▁बीचमा	-4859
▁एसियाको	-4860
धित	-4861
मलाई	-4862
र्का	-4863
▁ग्या	-4864
▁गतेदेखि	-4865
▁ज्ञापनपत्र	-4866
ारण	-4867
ङ्टन	-4868
ट्टि	-4869
▁दम्प	-4870
▁नवनि	-4871
▁बलात्कारपछि	-4872
▁डर	-4873
त्तर	-4874
▁नराम	-4875
▁जागिर	-4876
▁बस्तु	-4877
▁व्यापक	-4878
▁ग्राभेल	-4879
▁अभिव्यक्ति	-4880
प्टर	-4881
ल्पना	-4882
▁थोरै	-4883
▁लामि	-4884
▁चाहना	-4885
▁सल्यान	-4886
लेट	-4887
▁अच	-4888
▁नाच	-4889
▁बित	-4890
▁माझ	-4891
▁पुग्	-4892
▁लाइस	-4893
▁समुह	-4894
सरकारी	-4895
▁आवेदन	-4896
▁भागमा	-4897
▁मङ्गल	-4898
▁नसक्दा	-4899
▁किनारमा	-4900
he	-4901
▁डट	-4902
▁अल्	-4903
▁भिड	-4904
मित्व	-4905
▁देवी	-4906
▁राजी	-4907
▁पूँजी	-4908
▁मद्दत	-4909
▁असन्तु	-4910
▁किसिमको	-4911
▁सम्वन्धी	-4912
▁जलविद्युत्	-4913
ac	-4914
▁काट	-4915
▁निम	-4916
▁भाडा	-4917
▁खेलको	-4918
▁दुर्ग	-4919
▁महानि	-4920
▁लेखनाथ	-4921
▁विज्ञा	-4922
▁विनियोजन	-4923
▁परराष्ट्र	-4924
▁राजनीतिमा	-4925
▁स्वाभाविक	-4926
अस	-4927
उत्	-4928
वत्	-4929
▁ओल	-4930
▁डोटी	-4931
▁दलको	-4932
▁न्यौ	-4933
▁पुगे	-4934
तातर्फ	-4935
गण	-4936
७६	-4937
▁किरा	-4938
▁पीडा	-4939
▁लागे	-4940
▁चैत्र	-4941
▁उनीहरुलाई	-4942
जले	-4943
▁इज	-4944
लिंगी	-4945
▁धितो	-4946
▁जानेछ	-4947
▁दर्शन	-4948
▁मनाउने	-4949
▁मसान्त	-4950
▁संस्थागत	-4951
01	-4952
भरी	-4953
▁गयो	-4954
कालागि	-4955
▁समयमै	-4956
▁चढाइने	-4957
न्डै	-4958
गण्डकी	-4959
▁आकाशे	-4960
▁छोराछो	-4961
▁भेटिएको	-4962
ब्य	-4963
▁भएकी	-4964
▁तपाईँ	-4965
▁शाक्य	-4966
▁लामिछा	-4967
▁हुँदैछ	-4968
▁सदस्यीय	-4969
▁भित्र्या	-4970
▁विक्रिकर	-4971
न्थे	-4972
▁खेत	-4973
त्वमा	-4974
ब्लिक	-4975
▁दियो	-4976
पत्रमा	-4977
▁संचाल	-4978
▁जितेको	-4979
▁न्यौपा	-4980
▁सुर्खेत	-4981
भूति	-4982
▁विव	-4983
▁लगाइ	-4984
नारायण	-4985
▁कसैको	-4986
▁पञ्चा	-4987
▁फोहोर	-4988
▁थाल्यो	-4989
▁निर्मा	-4990
▁श्रीमा	-4991
▁वासिङ्टन	-4992
▁कम्प्युटर	-4993
▁प्रवद्र्धन	-4994
▁प्रारम्भिक	-4995
▁घट्	-4996
▁खासै	-4997
▁मार्	-4998
▁ओलम्प	-4999
▁संवाद	-5000
▁गुणस्तर	-5001
▁पूर्वराजा	-5002
▁स्वामित्व	-5003
▁सामाग्रीहरु	-5004
१९	-5005
▁एप	-5006
▁दूध	-5007
सिद्ध	-5008
▁च्याट	-5009
▁ठक्कर	-5010
▁प्राची	-5011
▁मूल्या	-5012
▁दे	-5013
भूमि	-5014
▁उचा	-5015
▁क्यामे	-5016
▁बेलामा	-5017
▁मकवानपुर	-5018
▁भट्टराईले	-5019
▁उम्मेदवारी	-5020
▁विकासमन्त्री	-5021
▁3	-5022
न्च	-5023
▁उपाय	-5024
गिट्टी	-5025
▁आनन्द	-5026
▁पानीको	-5027
▁मामिला	-5028
▁दाहालले	-5029
▁ब्यक्ति	-5030
▁संख्यामा	-5031
▁कारवाहीको	-5032
थर	-5033
▁t	-5034
वडा	-5035
▁द्	-5036
▁शता	-5037
पीडित	-5038
▁हवाई	-5039
▁धर्मा	-5040
▁लाग्न	-5041
▁दिवसको	-5042
▁परिवारका	-5043
▁कार्यक्रमका	-5044
ौल	-5045
▁b	-5046
जमा	-5047
प्च	-5048
ुक्त	-5049
▁उत्र	-5050
▁शारी	-5051
▁गर्छु	-5052
▁पर्वत	-5053
भित्रको	-5054
▁वर्षसम्म	-5055
▁व्यक्तिले	-5056
▁रुपान्तरणका	-5057
औं	-5058
यद	-5059
शेर	-5060
▁४४	-5061
▁५५	-5062
▁काठ	-5063
▁परम	-5064
▁सम्प्रेषण	-5065
▁वृ	-5066
बन्द	-5067
बाबु	-5068
▁बुढ	-5069
महिला	-5070
ेक्टर	-5071
▁ताजा	-5072
▁पहाड	-5073
▁पाल्	-5074
▁२०१७	-5075
▁मतदाता	-5076
▁मुआब्जा	-5077
▁हुनुभएको	-5078
▁नगरपालिकामा	-5079
परी	-5080
पोत	-5081
ल्स	-5082
वनी	-5083
▁अश	-5084
▁नृ	-5085
स्ने	-5086
▁बनाए	-5087
▁श्रो	-5088
▁ओलीको	-5089
▁निकुञ्ज	-5090
▁अख्तियार	-5091
▁उत्पादनमा	-5092
ङले	-5093
कुरा	-5094
नीमा	-5095
▁चुर	-5096
▁एक्स	-5097
▁बुबा	-5098
▁सूची	-5099
ारीलाई	-5100
▁जन्मि	-5101
▁रहँदै	-5102
▁गण्डकी	-5103
▁टिप्पणी	-5104
▁समुदायलाई	-5105
नाम	-5106
वती	-5107
▁नख	-5108
▁कन्	-5109
योग्य	-5110
▁गराउ	-5111
वालुवा	-5112
▁चेतना	-5113
▁अस्ट्र	-5114
▁भ्याले	-5115
▁सार्थक	-5116
▁अहवानको	-5117
▁महाधिवेशन	-5118
▁प्रधानमन्त्रीको	-5119
ारो	-5120
▁६५	-5121
▁अप्	-5122
▁यहा	-5123
▁कठिन	-5124
▁कसैलाई	-5125
▁सुवेदी	-5126
▁शारीरिक	-5127
▁लोकान्तर	-5128
▁भण्डारीले	-5129
id	-5130
▁c	-5131
तया	-5132
सेव	-5133
ियत	-5134
पर्व	-5135
ेलले	-5136
▁विधा	-5137
▁स्कुल	-5138
▁पर्‍यो	-5139
▁भित्रका	-5140
▁विभागीय	-5141
▁विश्वकै	-5142
un	-5143
भक्त	-5144
▁थाइ	-5145
▁माध	-5146
▁नम्ब	-5147
वृद्धि	-5148
▁किताब	-5149
▁खोजेको	-5150
▁घटनामा	-5151
▁छुट्या	-5152
▁क्रियाकला	-5153
औँ	-5154
▁मल	-5155
....	-5156
न्डा	-5157
युद्ध	-5158
ेश्रो	-5159
▁रिले	-5160
▁चलाउन	-5161
▁लागौँ	-5162
▁एकीकरण	-5163
▁खुलेको	-5164
▁सेवामा	-5165
▁शिक्षाको	-5166
▁कोइरालाले	-5167
▁निराशालाई	-5168
▁विद्यार्थीलाई	-5169
ौदा	-5170
▁जात	-5171
▁चालू	-5172
▁संकल	-5173
▁खारेज	-5174
▁गीतमा	-5175
▁पुष्टि	-5176
▁फुटबलको	-5177
▁नरेन्द्र	-5178
फि	-5179
शहर	-5180
..!!	-5181
▁चेता	-5182
▁झोला	-5183
▁संकेत	-5184
▁क्लबले	-5185
▁अध्यक्षमा	-5186
धाम	-5187
▁नाय	-5188
▁रुख	-5189
▁हेट	-5190
कुण्ड	-5191
▁तनाव	-5192
▁सेवन	-5193
▁गरिरह	-5194
▁नगरेको	-5195
▁यतिबेला	-5196
▁नकारात्मकताबाट	-5197
▁सकारात्मकतातर्फ	-5198
रस	-5199
▁त्र	-5200
▁पसल	-5201
▁बक्	-5202
▁गराइ	-5203
▁घरमै	-5204
▁विसं	-5205
▁अवरोध	-5206
▁भर्खर	-5207
▁रहन्छ	-5208
▁सक्नु	-5209
▁गायिका	-5210
▁बोकेको	-5211
▁आधारभूत	-5212
▁उपचारका	-5213
▁काठमाडौ	-5214
▁दैनिकमा	-5215
▁भाइटीका	-5216
▁म्युजिक	-5217
▁लामिछाने	-5218
टिज	-5219
भार	-5220
मिता	-5221
▁असह	-5222
▁रगत	-5223
▁सहि	-5224
झदारी	-5225
▁चाँड	-5226
▁घटेको	-5227
▁भगवान	-5228
▁सहारा	-5229
▁दुईवटा	-5230
▁अदालतमा	-5231
▁गोविन्द	-5232
▁धन्यवाद	-5233
▁सचिवालय	-5234
▁बचत	-5235
▁रचना	-5236
रामर्श	-5237
▁आइपुग्	-5238
▁मेडिकल	-5239
▁अमेरिकामा	-5240
▁सुनिश्चित	-5241
बम	-5242
प्ती	-5243
बीको	-5244
शाखा	-5245
▁दीप	-5246
▁नवल	-5247
कालिन	-5248
▁चौधरी	-5249
▁हातमा	-5250
▁महानगर	-5251
▁चुनावमा	-5252
२२	-5253
र्को	-5254
▁एकद	-5255
▁फार	-5256
▁ज्यो	-5257
▁सामना	-5258
▁सुन्न	-5259
▁केसीले	-5260
▁जोड्ने	-5261
▁बढाएको	-5262
▁स्वर्ग	-5263
▁आदिवासी	-5264
▁पुगेपछि	-5265
▁सरकारमा	-5266
▁त्यतिबेला	-5267
▁कांग्रेसले	-5268
eb	-5269
छन	-5270
भ्	-5271
ews	-5272
छौं	-5273
▁फे	-5274
सङ्घ	-5275
▁अलग	-5276
▁अनशन	-5277
▁खर्ब	-5278
▁मस्य	-5279
▁लेखा	-5280
▁सिक्	-5281
▁द्वारा	-5282
▁ओलम्पिक	-5283
▁प्रबन्ध	-5284
▁भइरहेका	-5285
▁मैदानमा	-5286
▁नेपालगञ्ज	-5287
३०	-5288
ड्न	-5289
बिर	-5290
▁पर्ख	-5291
▁श्रृ	-5292
▁लेख्ने	-5293
▁वर्षका	-5294
▁न्यूनतम	-5295
▁पदमुक्त	-5296
▁मस्यौदा	-5297
▁प्रतिवेद	-5298
▁केबलकारको	-5299
le	-5300
▁d	-5301
एसपी	-5302
▁आगो	-5303
▁थारु	-5304
▁मञ्च	-5305
▁रमाइ	-5306
त्साहन	-5307
▁शताब्	-5308
▁स्कूल	-5309
▁बिजुली	-5310
▁एमालेले	-5311
▁परामर्श	-5312
▁नागरिकको	-5313
७३	-5314
खित	-5315
जुए	-5316
जुन	-5317
ब्ब	-5318
हिक	-5319
वनमा	-5320
▁चरि	-5321
▁हङक	-5322
▁दिगो	-5323
▁बुझा	-5324
▁घर्ती	-5325
▁भन्यो	-5326
उत्पादन	-5327
▁मुस्ताङ	-5328
▁न्यौपाने	-5329
▁सम्मानित	-5330
▁व्यक्तित्व	-5331
▁उपमहानगरपालिका	-5332
टामा	-5333
त्रु	-5334
▁अक्	-5335
▁उन्	-5336
▁चाम	-5337
धारणा	-5338
▁तल्लो	-5339
▁मदिरा	-5340
▁साउदी	-5341
▁स्वयं	-5342
▁अभियोग	-5343
▁राख्दै	-5344
▁चेतावनी	-5345
ँदैछ	-5346
▁खिच	-5347
▁डुब	-5348
▁देखी	-5349
▁बल्ल	-5350
▁रहनु	-5351
▁अनुवाद	-5352
▁दुर्गा	-5353
▁सहयोगी	-5354
▁योजनामा	-5355
▁उपेन्द्र	-5356
ww	-5357
एच	-5358
▁ल्	-5359
▁हाँ	-5360
▁दोषी	-5361
▁अगुवा	-5362
▁एक्स्	-5363
▁क्रोए	-5364
▁बिगुल	-5365
▁पंक्ति	-5366
▁पोखरेलले	-5367
▁लाइसेन्स	-5368
तडी	-5369
दित	-5370
▁यम	-5371
▁कालि	-5372
▁मोरङ	-5373
▁स्कु	-5374
▁कप्ता	-5375
▁ग्रहण	-5376
▁पढ्ने	-5377
▁पाउनु	-5378
▁मधेशी	-5379
▁मासिक	-5380
▁सक्षम	-5381
▁ठेक	-5382
▁डेढ	-5383
▁लिए	-5384
▁कित्	-5385
▁चौकी	-5386
▁बिग्र	-5387
▁भिन्न	-5388
▁जीवनको	-5389
▁उत्तिकै	-5390
▁जनाइएको	-5391
▁भिडियोमा	-5392
▁भुक्तानी	-5393
▁माथिल्लो	-5394
▁अन्नपूर्ण	-5395
▁उनीहरूलाई	-5396
▁व्यवहारमा	-5397
▁अर्थमन्त्री	-5398
।”	-5399
यान	-5400
▁प्	-5401
र्यो	-5402
सिना	-5403
▁भार	-5404
▁नृत्य	-5405
▁पारेर	-5406
▁साथमा	-5407
▁आह्वान	-5408
▁उत्तरी	-5409
▁गराएका	-5410
▁देखियो	-5411
▁पुर्‍याउन	-5412
▁सञ्चालनको	-5413
▁प्रयोगकर्ता	-5414
▁a	-5415
▁s	-5416
फलमा	-5417
▁थपि	-5418
▁यहि	-5419
▁एन्ड	-5420
▁गन्ध	-5421
▁एकदमै	-5422
▁जसलाई	-5423
▁काभ्रे	-5424
▁यद्यपि	-5425
▁यादवले	-5426
▁विकृति	-5427
▁समाजको	-5428
▁टोलीलाई	-5429
▁क्यामेरा	-5430
रिङ	-5431
▁४७	-5432
▁युथ	-5433
▁थालि	-5434
▁दलले	-5435
▁निरु	-5436
▁पाइप	-5437
▁काउन्	-5438
▁थालिएको	-5439
▁भित्रको	-5440
▁परीक्षाको	-5441
टिभि	-5442
ेटिङ	-5443
▁ग्य	-5444
्यारा	-5445
▁केजी	-5446
▁बिता	-5447
▁ह्या	-5448
▁पर्दा	-5449
▁भरिएको	-5450
▁मात्रा	-5451
▁सुशासन	-5452
▁पशुपतिनाथ	-5453
ंग्	-5454
टिभ	-5455
▁शू	-5456
▁तीज	-5457
ग्राम	-5458
स्टेक	-5459
▁क्वा	-5460
▁ताली	-5461
▁माधव	-5462
विश्वास	-5463
स्थापना	-5464
▁राजदूत	-5465
▁एमालेका	-5466
▁लगाउँदा	-5467
बुझ	-5468
र्ह	-5469
क्षी	-5470
जनमा	-5471
▁मल्	-5472
प्रपा	-5473
सक्ने	-5474
▁बिगत	-5475
▁लागेर	-5476
▁लेख्नु	-5477
▁हुनसक्छ	-5478
▁अधिवक्ता	-5479
▁पुनर्उत्पादन	-5480
सत	-5481
▁झर	-5482
टरमा	-5483
▁खरी	-5484
▁भलि	-5485
▁कमजो	-5486
▁रमेश	-5487
▁खालको	-5488
▁अपराधी	-5489
▁खोज्दा	-5490
▁सभामुख	-5491
▁शक्तिशाली	-5492
ँु	-5493
इँ	-5494
▁पढा	-5495
▁पाई	-5496
▁फोट	-5497
▁टिका	-5498
▁लण्ड	-5499
▁मर्मत	-5500
▁कुराको	-5501
▁चलाउने	-5502
▁पार्दै	-5503
▁बताइन्	-5504
▁बस्नेत	-5505
▁बोल्दै	-5506
▁वर्षपछि	-5507
▁संस्कार	-5508
▁समितिमा	-5509
▁गरिसकेका	-5510
▁पर्यटकिय	-5511
▁निर्वाचनको	-5512
.),	-5513
▁उता	-5514
▁उभि	-5515
ोग्रा	-5516
▁प्रिम	-5517
▁संघको	-5518
▁काठमाडा	-5519
▁बिस्तृत	-5520
▁निष्कर्ष	-5521
▁नाकाबन्दी	-5522
▁D	-5523
नजर	-5524
हना	-5525
▁कौ	-5526
▁बाली	-5527
▁लाइन	-5528
ध्यापक	-5529
▁पोस्ट	-5530
▁ठेकेदार	-5531
▁मध्यनजर	-5532
▁लाभग्राही	-5533
▁सल्लाहकार	-5534
ing	-5535
काइ	-5536
▁३६	-5537
टीले	-5538
त्मा	-5539
बारी	-5540
वद्ध	-5541
▁एन्	-5542
▁दाङ	-5543
▁खतरा	-5544
▁गर्भ	-5545
▁जोशी	-5546
▁छात्र	-5547
▁साइकल	-5548
▁खुल्ला	-5549
▁गर्दैन	-5550
हुन्थ्यो	-5551
▁निर्माता	-5552
▁जिम्मेवार	-5553
▁रुपन्देही	-5554
प्स	-5555
▁दुइ	-5556
▁मिस	-5557
वारिक	-5558
▁त्या	-5559
▁दीपक	-5560
▁नामक	-5561
▁दर्शक	-5562
▁प्रेर	-5563
▁उदयपुर	-5564
▁पाइँदैन	-5565
▁सम्पादक	-5566
न्यायाधीश	-5567
ur	-5568
▁चे	-5569
माया	-5570
किएका	-5571
▁किशो	-5572
▁तस्क	-5573
▁मामि	-5574
▁सयौं	-5575
▁मर्या	-5576
▁समाप्त	-5577
▁तरिकाले	-5578
▁सम्पादन	-5579
▁वास्तवमा	-5580
उन्ट	-5581
पश्च	-5582
▁किम	-5583
▁केश	-5584
▁रिज	-5585
▁दिदै	-5586
▁पढाइ	-5587
▁बढाइ	-5588
▁अनुमो	-5589
▁लगाएका	-5590
▁अवधारणा	-5591
▁पुर्‍याउने	-5592
ic	-5593
वट	-5594
लिन	-5595
▁जस	-5596
▁खटि	-5597
▁खति	-5598
आफ्नो	-5599
▁आफैँ	-5600
▁इन्ध	-5601
▁एनआर	-5602
▁चालु	-5603
▁२०७०	-5604
▁देउसी	-5605
▁प्रोड	-5606
▁फैसला	-5607
▁माइती	-5608
▁बैंकमा	-5609
▁बिस्तार	-5610
खला	-5611
▁पस	-5612
वलम्	-5613
हिरो	-5614
▁ठीक	-5615
उँछन्	-5616
नाल्ड	-5617
▁दिमा	-5618
▁सेल्	-5619
▁मालपोत	-5620
▁जग्गाको	-5621
▁बर्दिया	-5622
▁प्रक्रियामा	-5623
ro	-5624
धीन	-5625
▁चेक	-5626
▁तमु	-5627
▁निमा	-5628
▁आइपुग	-5629
▁नदिने	-5630
▁बीचको	-5631
▁बैतडी	-5632
▁बाटोमा	-5633
▁समूहको	-5634
उनुपर्ने	-5635
▁अभियानमा	-5636
▁पहिलोपटक	-5637
▁विज्ञापन	-5638
▁अस्ट्रेलिया	-5639
मू	-5640
▁खै	-5641
▁गित	-5642
▁दवा	-5643
▁ढोका	-5644
▁शैली	-5645
▁साँच	-5646
यात्रा	-5647
▁गरिदि	-5648
▁मध्यम	-5649
▁रोगको	-5650
▁हैसिय	-5651
▁खतिवडा	-5652
▁श्रावण	-5653
▁राप्रपा	-5654
▁रिपोर्ट	-5655
▁मोटरसाइकल	-5656
ङग	-5657
थु	-5658
लिस	-5659
ोस्	-5660
लोचन	-5661
▁चक्र	-5662
▁पद्ध	-5663
▁बारा	-5664
लाइनमा	-5665
▁नरहेको	-5666
▁डोनाल्ड	-5667
▁दिनसम्म	-5668
▁गुल्मीले	-5669
▁]	-5670
न्नु	-5671
▁ओभर	-5672
▁नाइ	-5673
▁एण्ड	-5674
▁कतार	-5675
▁अग्रज	-5676
▁बाह्र	-5677
▁राईले	-5678
▁सरुवा	-5679
▁विषयलाई	-5680
▁गाउँपालिकामा	-5681
भग	-5682
कल्प	-5683
रोधी	-5684
र्दा	-5685
ालमा	-5686
▁201	-5687
▁रेस	-5688
्वाइस	-5689
▁खाता	-5690
▁वक्त	-5691
▁शिखर	-5692
ङ्ग्रेस	-5693
▁महाशाखा	-5694
▁परिवारको	-5695
▁रियालिटी	-5696
▁बिस्तृतमा	-5697
▁जनसंख्याको	-5698
▁न्यायकालागि	-5699
पल	-5700
लस	-5701
ेरा	-5702
▁जै	-5703
रहने	-5704
्रिक	-5705
▁टोल	-5706
▁दफा	-5707
▁चिसो	-5708
▁मातह	-5709
▁हकमा	-5710
▁पालना	-5711
जनात्मक	-5712
▁पृथ्वी	-5713
▁रुपैया	-5714
▁क्रोएसिया	-5715
▁पाकिस्तान	-5716
▁गाउँपालिकाका	-5717
ह्र	-5718
फोर्	-5719
▁जमा	-5720
ेकाले	-5721
▁साइट	-5722
हरुसँग	-5723
▁खुल्ने	-5724
▁डिजाइन	-5725
▁पाण्डे	-5726
▁नराम्रो	-5727
▁पछिल्ला	-5728
▁मामिलामा	-5729
▁पार्टीलाई	-5730
il	-5731
ँकी	-5732
फिल्	-5733
हारी	-5734
हुने	-5735
▁ठिक	-5736
▁उन्न	-5737
▁टिकट	-5738
▁वैठक	-5739
▁सेतो	-5740
▁अाधार	-5741
▁लाग्दा	-5742
▁खोजमूलक	-5743
▁गरेकाले	-5744
▁विद्यादेवी	-5745
ंको	-5746
▁सृ	-5747
ल्का	-5748
िकरण	-5749
▁लाङ	-5750
▁खुट्	-5751
▁नाफा	-5752
▁अग्नि	-5753
प्रतिको	-5754
▁अवलोकन	-5755
▁क्यालि	-5756
▁मान्ने	-5757
खे	-5758
ौट	-5759
यले	-5760
▁५१	-5761
च्या	-5762
नीले	-5763
्याम	-5764
▁राउ	-5765
▁लघु	-5766
▁सिर	-5767
वासमा	-5768
▁शुक्	-5769
▁स्थग	-5770
▁२०१६	-5771
▁चल्ने	-5772
▁तिब्ब	-5773
▁नमुना	-5774
नुभन्दा	-5775
▁स्मृति	-5776
▁नेपालीले	-5777
जुएट	-5778
प्या	-5779
▁कदम	-5780
▁सोड	-5781
लाउने	-5782
स्टिक	-5783
▁रानी	-5784
गरमाथा	-5785
▁विधान	-5786
नुपर्दछ	-5787
▁बक्सिङ	-5788
▁सङ्कलन	-5789
▁निस्कने	-5790
▁समझदारी	-5791
▁संविधानमा	-5792
▁उद	-5793
▁सघ	-5794
▁बिज	-5795
समिति	-5796
▁जडान	-5797
▁तारि	-5798
▁लगाउ	-5799
▁स्वर	-5800
▁देखिए	-5801
▁रहस्य	-5802
▁समसाम	-5803
▁पर्वमा	-5804
▁बनाउनु	-5805
▁ब्राजि	-5806
▁उहाँलाई	-5807
▁कुरालाई	-5808
▁श्रीलङ्	-5809
▁गैरसरकारी	-5810
▁कर्मचारीलाई	-5811
कन	-5812
यिक	-5813
म्पु	-5814
ल्दि	-5815
▁काँ	-5816
▁जरि	-5817
▁भुट	-5818
▁सतह	-5819
▁सेट	-5820
चेञ्ज	-5821
▁गरिब	-5822
▁प्ले	-5823
श्रमिक	-5824
▁बुद्धि	-5825
▁रोल्पा	-5826
▁उपरीक्षक	-5827
▁मुद्दामा	-5828
▁म्याग्दी	-5829
▁केन्द्रले	-5830
▁प्रतिबन्ध	-5831
▁कर्मचारीले	-5832
निय	-5833
▁कुट	-5834
▁आकार	-5835
▁आसपा	-5836
▁बर्त	-5837
▁वसन्त	-5838
मार्फत्	-5839
▁क्रमशः	-5840
▁नपाउने	-5841
▁नायिका	-5842
▁चित्रमा	-5843
▁फैलिएको	-5844
▁अधिकारको	-5845
▁त्रिलोचन	-5846
▁कृषक	-5847
▁छोडेर	-5848
▁टुंगो	-5849
▁पुग्छ	-5850
▁योग्य	-5851
▁प्रतिभा	-5852
▁समावेशी	-5853
▁फोटोग्रा	-5854
▁महासंघको	-5855
फोट	-5856
भाषा	-5857
▁शरण	-5858
▁बुढी	-5859
▁लागत	-5860
मैत्री	-5861
िरहेका	-5862
▁बन्यो	-5863
▁सन्धि	-5864
▁सावित	-5865
▁स्मरण	-5866
▁हल्ला	-5867
▁इन्द्र	-5868
▁लैजाने	-5869
▁उपचारको	-5870
▁एकमात्र	-5871
▁हुनेछन्	-5872
▁दिनुभएको	-5873
▁परिवारले	-5874
भाष	-5875
▁भृ	-5876
वाना	-5877
▁अवैध	-5878
▁कोहि	-5879
▁खुवा	-5880
▁ओलीलाई	-5881
▁नवलपरा	-5882
▁पक्षले	-5883
▁प्रालि	-5884
▁लाङटाङ	-5885
▁लिइएको	-5886
▁अनियमित	-5887
▁बोर्डले	-5888
▁रहेकाले	-5889
▁लगानीको	-5890
▁संस्थान	-5891
▁पढ्नुहोस	-5892
▁राजेन्द्र	-5893
लिज	-5894
सरो	-5895
सिड	-5896
▁उड	-5897
▁अनौ	-5898
▁पेस	-5899
▁बरा	-5900
▁रेग्	-5901
रियाली	-5902
वृत्ति	-5903
▁अस्वी	-5904
▁अहोरा	-5905
▁झन्डै	-5906
▁सन्तु	-5907
▁आयोगको	-5908
▁ग्य्रा	-5909
▁वक्तव्य	-5910
▁सगरमाथा	-5911
▁अहोरात्र	-5912
▁विद्यालयलाई	-5913
घ्र	-5914
▁सन	-5915
िन्छ	-5916
▁टेक	-5917
▁फलफ	-5918
मधेशी	-5919
▁थापाको	-5920
▁पठाएको	-5921
▁भ्वाइस	-5922
▁काङ्ग्रेस	-5923
▁धर्मावलम्	-5924
▁बासिन्दालाई	-5925
इने	-5926
लास	-5927
त्रो	-5928
मशेर	-5929
▁चाँ	-5930
▁पति	-5931
▁बहा	-5932
▁बाढ	-5933
▁बिहे	-5934
▁उत्साह	-5935
▁दोहोरो	-5936
▁पठाउने	-5937
▁बिहानी	-5938
▁विक्रि	-5939
▁पोखराले	-5940
▁मूल्यमा	-5941
▁केन्द्रको	-5942
▁क्यालिफोर्	-5943
नोद	-5944
पार	-5945
▁३८	-5946
▁४२	-5947
▁८५	-5948
लागी	-5949
▁पछी	-5950
▁अबको	-5951
▁निस्	-5952
▁पढौं	-5953
▁जिन्द	-5954
▁देखेर	-5955
▁चरित्र	-5956
▁सन्तुल	-5957
▁विद्युत	-5958
▁ग्य्राजुएट	-5959
▁हेर्नुहोस्	-5960
वरी	-5961
▁जंग	-5962
▁गौरव	-5963
▁दक्ष	-5964
▁मल्ल	-5965
▁मोडल	-5966
परिवार	-5967
▁डिभिजन	-5968
▁अत्यधिक	-5969
▁लेखिएको	-5970
यौँ	-5971
▁तस	-5972
▁९५	-5973
जीवन	-5974
दत्त	-5975
▁बृह	-5976
▁युए	-5977
▁सद्	-5978
पकोटा	-5979
▁ध्या	-5980
▁निशा	-5981
▁बङ्ग	-5982
प्रसार	-5983
▁गरिन्	-5984
▁टेलिक	-5985
▁बिकास	-5986
▁स्याउ	-5987
▁निकासी	-5988
▁पुग्दा	-5989
▁भेटघाट	-5990
▁सापकोटा	-5991
▁भ्यालेन्	-5992
▁मन्दिरको	-5993
▁श्रेष्ठको	-5994
०४	-5995
▁)	-5996
ह्न	-5997
▁हृ	-5998
्यमा	-5999
कर्षण	-6000
▁इन्ड	-6001
▁जर्म	-6002
▁बाँक	-6003
र्सिलो	-6004
▁गर्यो	-6005
▁बर्षको	-6006
▁बालुवाट	-6007
▁भइसकेका	-6008
▁प्रसिद्ध	-6009
▁महत्त्वपूर्ण	-6010
दत	-6011
▁९७	-6012
एमसी	-6013
▁रहि	-6014
▁१००	-6015
▁पाठक	-6016
▁मुगु	-6017
्वासको	-6018
▁पोष्ट	-6019
▁भलिबल	-6020
▁महीना	-6021
▁नाराका	-6022
▁अंग्रेजी	-6023
▁चिकित्सा	-6024
▁क्यालिफोर्निया	-6025
लाश	-6026
ियो	-6027
▁आयु	-6028
▁चल्	-6029
▁दिई	-6030
▁आर्म	-6031
▁वरपर	-6032
प्चामा	-6033
▁सुन्त	-6034
▁प्रस्ट	-6035
▁सकेनन्	-6036
▁गन्धर्व	-6037
▁अनलाइनमा	-6038
▁प्रमाणित	-6039
▁मुक्तिनाथ	-6040
▁व्यवस्थापनका	-6041
जात	-6042
निज	-6043
एफपी	-6044
▁मार	-6045
काठमा	-6046
▁अतिथि	-6047
▁अस्ति	-6048
▁गोर्खा	-6049
▁तोकेको	-6050
▁जग्गामा	-6051
▁सुरुवात	-6052
▁समुदायका	-6053
धना	-6054
बाद	-6055
▁शौ	-6056
,...	-6057
कियो	-6058
नायक	-6059
हिने	-6060
▁पवि	-6061
▁बगा	-6062
▁बेल	-6063
संगको	-6064
▁बित्	-6065
▁महँग	-6066
▁निवास	-6067
स्थापित	-6068
▁खनालले	-6069
▁समयसम्म	-6070
▁बार्सिलो	-6071
लोड	-6072
▁अख	-6073
▁हिम	-6074
▁प्रय	-6075
▁फागु	-6076
▁बाला	-6077
▁शत्रु	-6078
▁आकर्षक	-6079
▁सन्तोष	-6080
▁शक्तिको	-6081
▁मङ्गलबार	-6082
▁क्रियाशील	-6083
हको	-6084
▁३७	-6085
थिति	-6086
▁बुवा	-6087
लवस्तु	-6088
स्थायी	-6089
▁तसर्थ	-6090
▁शान्त	-6091
▁स्क्र	-6092
▁नगरसभा	-6093
▁वालुवा	-6094
▁स्वर्ण	-6095
पालिकाको	-6096
▁लगानीमा	-6097
▁चलिरहेको	-6098
▁प्राथमिकतामा	-6099
इड	-6100
याे	-6101
लिम	-6102
▁टन	-6103
गरीय	-6104
▁जोन	-6105
▁ठहर	-6106
▁दान	-6107
▁बसि	-6108
▁सत्	-6109
▁कारा	-6110
▁रह्यो	-6111
▁ध्याना	-6112
▁रेखदेख	-6113
▁सूचीमा	-6114
▁कानुनको	-6115
▁ठाउँबाट	-6116
▁प्रधानन्यायाधीश	-6117
▁I	-6118
उदै	-6119
सीय	-6120
▁तै	-6121
कहाँ	-6122
कुटी	-6123
बासी	-6124
हिता	-6125
▁अमर	-6126
जन्तु	-6127
▁कर्त	-6128
▁रियल	-6129
▁मुखमा	-6130
▁सार्क	-6131
▁घिमिरे	-6132
▁देशलाई	-6133
▁विभाजन	-6134
▁समाजका	-6135
▁भारतबाट	-6136
▁प्रेमिका	-6137
▁प्रविधिको	-6138
साङ	-6139
▁धर	-6140
क्सा	-6141
ानमा	-6142
▁कुर	-6143
▁कोठ	-6144
▁बझा	-6145
▁मस्	-6146
▁संसो	-6147
▁हेरि	-6148
हरुबाट	-6149
▁बेलुकी	-6150
▁रणनीति	-6151
▁खोलाबाट	-6152
▁सेनालाई	-6153
▁कार्कीले	-6154
▁भ्यालेन्टाइ	-6155
▁मंगलबारदेखि	-6156
el	-6157
▁H	-6158
देशक	-6159
▁गोक	-6160
च्छेद	-6161
र्‍या	-6162
▁अल्प	-6163
▁तत्व	-6164
▁दूता	-6165
▁हिउँ	-6166
▁गैरका	-6167
▁संघले	-6168
▁सहायता	-6169
क्याप्चामा	-6170
▁बन्दीपुरमा	-6171
गडा	-6172
निस	-6173
शरण	-6174
प्टे	-6175
▁छेउ	-6176
▁मिट	-6177
▁वटै	-6178
दैनन्	-6179
▁नपुग	-6180
▁प्रस	-6181
▁लगभग	-6182
▁अपाचे	-6183
▁परेकी	-6184
▁स्थिर	-6185
▁खोज्ने	-6186
▁स्वदेशी	-6187
▁व्याख्या	-6188
▁सेवाग्राही	-6189
११	-6190
२५	-6191
शिल	-6192
▁नु	-6193
डोमा	-6194
न्स्	-6195
▁खडा	-6196
▁हिं	-6197
सम्मत	-6198
▁राखी	-6199
▁एशियन	-6200
▁कित्ता	-6201
▁त्यसरी	-6202
▁मनाइने	-6203
▁मसलाको	-6204
▁शताब्दी	-6205
▁प्रिमियर	-6206
▁महानगरीय	-6207
▁स्याम्पु	-6208
▁ब्राण्डेड	-6209
▁गाउँपालिकाले	-6210
ma	-6211
ंदा	-6212
ुकु	-6213
▁नमा	-6214
▁मोह	-6215
दरबार	-6216
लेक्ट	-6217
▁पेशा	-6218
▁कार्ड	-6219
अध्यक्ष	-6220
▁अन्तरि	-6221
▁कप्तान	-6222
▁कीर्ति	-6223
▁तस्बिर	-6224
▁सभ्यता	-6225
▁गठबन्धन	-6226
▁पश्चिमा	-6227
▁बाहिरिएकी	-6228
ईन	-6229
खन	-6230
प्ने	-6231
ेलको	-6232
अहिले	-6233
▁क्लव	-6234
▁खानी	-6235
▁भरपर्	-6236
▁यसपटक	-6237
▁अन्र्त	-6238
▁खण्डमा	-6239
▁परिवेश	-6240
▁पाल्पा	-6241
▁भरतपुर	-6242
▁शनिवार	-6243
▁चर्चामा	-6244
▁तपाईंले	-6245
▁दम्पत्ति	-6246
▁परिषद्को	-6247
▁प्रचण्डले	-6248
▁लागिरहेको	-6249
अप	-6250
▁एट	-6251
▁सत	-6252
▁फेब	-6253
बहिनी	-6254
▁उनकी	-6255
▁बोल्	-6256
म्बुले	-6257
▁चाहने	-6258
▁नदीमा	-6259
▁उहाँका	-6260
▁युवराज	-6261
▁मुलुकका	-6262
▁नेपालबाट	-6263
▁पारिवारिक	-6264
▁स्थानीयवासी	-6265
्मण	-6266
▁पछ	-6267
▁बर	-6268
ट्टै	-6269
दरमा	-6270
स्दै	-6271
हाली	-6272
▁कूट	-6273
▁सिम	-6274
▁खरीद	-6275
▁बलान	-6276
▁लन्च	-6277
काठमाड	-6278
टिभिएस	-6279
▁ढुवानी	-6280
▁नसकिने	-6281
▁शिक्षण	-6282
▁स्वीका	-6283
▁अभिभावक	-6284
▁आइपुग्दा	-6285
▁श्रीमानबीच	-6286
▁सरोकारवाला	-6287
▁ध्यानाकर्षण	-6288
▁विद्यार्थीले	-6289
शल	-6290
ेँ	-6291
ंचा	-6292
खेर	-6293
▁An	-6294
▁तप	-6295
म्का	-6296
▁औषध	-6297
▁नवी	-6298
▁पात	-6299
▁मधु	-6300
▁रिप	-6301
▁अप्ठ	-6302
▁रुचि	-6303
▁11485	-6304
▁11486	-6305
▁समयको	-6306
▁स्वस्थ	-6307
▁पञ्चायत	-6308
▁बाध्यता	-6309
▁राजीनामा	-6310
▁नागरिकलाई	-6311
▁11485/074-75	-6312
▁11486/074-75	-6313
दृ	-6314
िता	-6315
▁बैं	-6316
र्दिक	-6317
▁गोल्	-6318
▁छाया	-6319
▁पूरै	-6320
▁भानु	-6321
▁राती	-6322
डिजिटल	-6323
▁आबद्ध	-6324
▁पक्कै	-6325
▁प्रकट	-6326
▁प्रिय	-6327
▁सस्तो	-6328
▁सिटिज	-6329
▁हट्ने	-6330
▁आयोगका	-6331
▁ढकालले	-6332
▁अनुमानित	-6333
▁समस्याको	-6334
▁जनकपुरधाम	-6335
▁तब	-6336
दायी	-6337
मबाट	-6338
विद्	-6339
साना	-6340
▁एसो	-6341
▁गहन	-6342
▁दाइ	-6343
ालयको	-6344
िल्ली	-6345
▁सिँच	-6346
क्ताको	-6347
नाल्डो	-6348
▁11487	-6349
▁खबरका	-6350
▁शून्य	-6351
▁अग्रसर	-6352
▁हार्दिक	-6353
▁जानकारीको	-6354
▁राष्ट्रियता	-6355
▁11487/074-75	-6356
फु	-6357
वु	-6358
२३	-6359
ैमा	-6360
▁चर	-6361
▁५३	-6362
त्रि	-6363
न्थी	-6364
▁धनु	-6365
▁जोडी	-6366
▁शंका	-6367
▁किनकि	-6368
▁गल्ती	-6369
▁पुर्व	-6370
▁बृद्ध	-6371
▁अनुकूल	-6372
▁ज्योति	-6373
▁बजारको	-6374
▁मुटुमा	-6375
▁विद्रो	-6376
▁अस्थायी	-6377
▁दिनभित्र	-6378
▁सञ्चारमा	-6379
▁संस्थालाई	-6380
▁महानगरपालिकाले	-6381
▁5	-6382
▁?’	-6383
घरमा	-6384
ङ्कन	-6385
ेलमा	-6386
▁अंश	-6387
▁चोट	-6388
▁दिप	-6389
▁बढेर	-6390
पक्षीय	-6391
▁झण्डा	-6392
▁परिचित	-6393
▁सन्तान	-6394
▁सवालमा	-6395
▁प्रशंसा	-6396
▁प्रशस्त	-6397
▁फाइनलमा	-6398
▁लगाइएको	-6399
▁उद्योगको	-6400
▁रोनाल्डो	-6401
▁संस्थापक	-6402
▁दीर्घबहादुर	-6403
एनए	-6404
गाई	-6405
वेयर	-6406
िष्ट	-6407
्रिड	-6408
▁कूल	-6409
न्यास	-6410
▁नलाग	-6411
▁गर्मी	-6412
▁तुलना	-6413
▁सुशील	-6414
क्षिप्त	-6415
▁चाहिने	-6416
▁बिहानै	-6417
▁प्रोडक्ट	-6418
▁परीक्षामा	-6419
▁प्रणालीको	-6420
ँट	-6421
वरले	-6422
्रुअ	-6423
ालीको	-6424
▁मनाङ	-6425
▁विस्	-6426
▁प्रभु	-6427
▁भेट्न	-6428
▁म्याद	-6429
▁रहनेछ	-6430
▁समक्ष	-6431
▁निवेदन	-6432
▁बिएमसी	-6433
▁राप्ती	-6434
▁आहवानको	-6435
▁चाहन्छु	-6436
▁न्यायिक	-6437
▁पठाइएको	-6438
▁शास्त्र	-6439
▁तत्कालिन	-6440
▁संविधानले	-6441
▁सोडारीलाई	-6442
ँउ	-6443
टप	-6444
ड्ड	-6445
पिट	-6446
एएफपी	-6447
▁अलिक	-6448
▁विदा	-6449
▁सफ्ट	-6450
▁सायद	-6451
▁मेलम्	-6452
▁नेताले	-6453
▁पूरानो	-6454
▁बेथिति	-6455
▁भर्खरै	-6456
▁सूचनाको	-6457
▁व्यापारिक	-6458
▁क्रियाकलाप	-6459
बिना	-6460
सनको	-6461
ोलखा	-6462
▁कैद	-6463
लादेश	-6464
▁अपरि	-6465
▁मोहन	-6466
▁लुका	-6467
कुमारी	-6468
▁अडियो	-6469
▁अनुशा	-6470
▁जन्मा	-6471
▁खेलेको	-6472
▁चाहेको	-6473
▁माल्दि	-6474
▁कञ्चनपुरकी	-6475
भो	-6476
दुई	-6477
रोप	-6478
▁ग्	-6479
ब्बा	-6480
यरमा	-6481
सीमा	-6482
▁ताप	-6483
▁हाउ	-6484
पट्टि	-6485
योर्क	-6486
व्यापी	-6487
सम्मका	-6488
▁प्रती	-6489
▁रमाइलो	-6490
▁पराजुली	-6491
▁फिल्ममा	-6492
▁आन्दोलनको	-6493
▁विश्वविद्यालयमा	-6494
ल्यो	-6495
सनका	-6496
▁फेर	-6497
▁मदन	-6498
▁१६९	-6499
एकाले	-6500
्यारो	-6501
▁पत्नी	-6502
▁बहुमत	-6503
▁समयअघि	-6504
▁मानिसले	-6505
ें	-6506
खाना	-6507
चाहि	-6508
▁अफग	-6509
▁थान	-6510
बिहान	-6511
▁अफ्र	-6512
▁काली	-6513
▁छनौट	-6514
▁संकट	-6515
▁गरेमा	-6516
▁लेख्न	-6517
▁कामलाई	-6518
▁खासगरी	-6519
▁छिट्टै	-6520
▁शरीरमा	-6521
▁सकिनेछ	-6522
▁धितोपत्र	-6523
▁सामान्यतया	-6524
केट	-6525
संर	-6526
▁इन	-6527
▁३९	-6528
टाएर	-6529
नेका	-6530
▁बरि	-6531
▁मेस	-6532
▁रिस	-6533
▁लिई	-6534
▁केरा	-6535
▁गराई	-6536
▁तुरु	-6537
▁दावी	-6538
▁बाइक	-6539
▁चित्त	-6540
▁दोलखा	-6541
▁बत्ती	-6542
▁विवेक	-6543
▁यादवको	-6544
▁इन्टरने	-6545
▁खड्काले	-6546
▁क्षमताको	-6547
▁अभिनेत्री	-6548
▁लाभग्राहीहरुको	-6549
ent	-6550
ेक्ट	-6551
विहीन	-6552
ग्रस्त	-6553
▁ग्यास	-6554
▁दिइने	-6555
▁पश्चा	-6556
▁होइनन्	-6557
▁अवरुद्ध	-6558
▁वर्षभित्र	-6559
▁बताउनुहुन्छ	-6560
अर्थ	-6561
असोज	-6562
बापत	-6563
ञ्चित	-6564
ण्डित	-6565
▁भोली	-6566
निर्भर	-6567
▁छाडेर	-6568
▁तालीम	-6569
▁अभावमा	-6570
▁किस्ता	-6571
▁दुर्गम	-6572
▁निशाना	-6573
▁बिरुवा	-6574
▁बोल्ने	-6575
▁हतियार	-6576
▁उपभोग्य	-6577
▁प्रशासक	-6578
▁माइक्रो	-6579
स्वास्थ्य	-6580
▁विस्तारको	-6581
दीप	-6582
रात	-6583
क्की	-6584
▁जगत	-6585
▁बहि	-6586
▁विष	-6587
बाँकी	-6588
▁कसले	-6589
▁गरिए	-6590
▁चोरी	-6591
▁दरले	-6592
▁नायक	-6593
▁बाजु	-6594
▁२०१५	-6595
▁आमाको	-6596
▁कल्या	-6597
▁गीतको	-6598
▁कल्पना	-6599
▁धेरैले	-6600
▁बैंकका	-6601
▁लाइनमा	-6602
▁विषयको	-6603
▁केटाहरु	-6604
▁ध्यानमा	-6605
▁भविष्यमा	-6606
▁क्षेत्रबाट	-6607
▁बन्दीपुरका	-6608
▁तनहुँवासीले	-6609
▁प्राधिकरणले	-6610
▁बालबालिकालाई	-6611
▁सर्वसाधारणको	-6612
५६	-6613
▁4	-6614
ang	-6615
कस्	-6616
कां	-6617
स्टि	-6618
▁अरब	-6619
▁भाउ	-6620
लम्बन	-6621
▁जित्	-6622
▁बाँड	-6623
▁बानी	-6624
▁अचम्म	-6625
▁केसीको	-6626
▁गौतमले	-6627
▁जुम्ला	-6628
▁नीतिगत	-6629
▁जरिवाना	-6630
▁अध्ययनका	-6631
▁माध्यमिक	-6632
▁संस्थामा	-6633
▁उपभोक्ताहरुको	-6634
सय	-6635
बरमा	-6636
▁मङ्	-6637
हुँदै	-6638
▁तिनै	-6639
▁दवाव	-6640
▁सुनै	-6641
कल्पिक	-6642
मन्त्र	-6643
▁गर्नै	-6644
▁गोपाल	-6645
▁दमौली	-6646
▁नेचुर	-6647
▁लाखको	-6648
▁साविक	-6649
▁सेवाको	-6650
▁एसियाली	-6651
▁नेताहरु	-6652
▁भरपर्दो	-6653
▁उपप्रमुख	-6654
▁टेलिभिजन	-6655
▁मन्त्रीको	-6656
▁प्रतिनिधित्वको	-6657
▁यि	-6658
▁सँ	-6659
धनमा	-6660
न्ता	-6661
पालन	-6662
द्रिक	-6663
याउने	-6664
रहँदा	-6665
▁इंग्	-6666
▁धरान	-6667
▁सिधै	-6668
▁सोधि	-6669
▁गर्थे	-6670
▁घन्टा	-6671
▁धन्दा	-6672
▁फलफूल	-6673
▁सभामा	-6674
▁प्रायः	-6675
▁बजेटको	-6676
▁बेच्ने	-6677
▁कहिलेका	-6678
▁वस्तुको	-6679
▁विशिष्ट	-6680
▁संघीयता	-6681
▁समाजवाद	-6682
▁स्रोतले	-6683
▁जानकारीका	-6684
गल	-6685
रल	-6686
२८	-6687
लिट	-6688
वाक	-6689
▁ओभ	-6690
र्चु	-6691
▁अवि	-6692
▁डढे	-6693
ुङ्गा	-6694
▁महतो	-6695
▁उत्तम	-6696
▁भवनको	-6697
▁रसिया	-6698
▁कल्याण	-6699
▁छनोटमा	-6700
▁देखाउन	-6701
▁नेचुरल	-6702
▁भृकुटी	-6703
▁स्वरुप	-6704
▁विद्युतीय	-6705
▁हस्तक्षेप	-6706
▁निर्देशिका	-6707
▁निर्वाचनका	-6708
खत	-6709
जनी	-6710
▁हौ	-6711
जाको	-6712
▁सहमत	-6713
त्तिकै	-6714
न्द्रा	-6715
▁डढेलो	-6716
▁अर्थमा	-6717
▁सहितको	-6718
▁सेनाको	-6719
▁स्थगित	-6720
▁भन्नेमा	-6721
▁मानिएको	-6722
▁पार्टीमा	-6723
▁श्रीमान्	-6724
औष	-6725
लभ	-6726
▁८४	-6727
पल्ट	-6728
▁एल्	-6729
▁काे	-6730
▁बेइ	-6731
सक्यो	-6732
▁खनाल	-6733
▁गिरि	-6734
▁गौरा	-6735
▁दसैं	-6736
▁भारी	-6737
▁खोल्न	-6738
▁अभिलेख	-6739
▁खुट्टा	-6740
▁बृद्धि	-6741
▁विकसित	-6742
न्यजन्तु	-6743
▁तुरुन्त	-6744
▁प्रदर्शनी	-6745
▁वडाध्यक्ष	-6746
▁क्षतिपूर्ति	-6747
▁re	-6748
विरु	-6749
▁रुम	-6750
पार्क	-6751
▁गरौं	-6752
▁नदीको	-6753
▁रिलिज	-6754
▁अग्रता	-6755
▁नपर्ने	-6756
▁माउन्ट	-6757
▁हुन्छन	-6758
▁चौधरीले	-6759
▁फेब्रुअ	-6760
▁जापानबाट	-6761
▁रिपब्लिक	-6762
▁सञ्जालमा	-6763
▁नेपालीलाई	-6764
▁रहर	-6765
▁कुरो	-6766
▁दशैँ	-6767
▁मावि	-6768
▁ग्राम	-6769
▁तारिख	-6770
▁निजाम	-6771
▁सभाको	-6772
▁जित्ने	-6773
▁डिग्री	-6774
▁थिएनन्	-6775
▁कोरियाली	-6776
▁त्यहाँका	-6777
▁प्रहरीका	-6778
▁कपिलवस्तु	-6779
▁परिचयपत्र	-6780
▁काँग्रेसका	-6781
▁श्रीलङ्काको	-6782
▁च्याम्पियनसि	-6783
ov	-6784
sha	-6785
फ्र	-6786
क्षे	-6787
फोटो	-6788
ाधीन	-6789
▁फिट	-6790
epali	-6791
▁2018	-6792
▁इन्स	-6793
▁त्रै	-6794
र्देशक	-6795
▁दैलेख	-6796
▁सिरहा	-6797
खोलाहरु	-6798
▁ताप्ले	-6799
▁हराएको	-6800
▁निमार्ण	-6801
ाउनुपर्ने	-6802
▁माओवादीले	-6803
▁यहाहरुलाई	-6804
▁विश्वकपमा	-6805
▁राष्ट्रसंघ	-6806
▁प्रोडक्टहरु	-6807
▁कार्यक्रमलाई	-6808
थ्य	-6809
यती	-6810
▁बू	-6811
▁वार	-6812
हुनेछ	-6813
्रीको	-6814
▁अडान	-6815
▁आएकी	-6816
▁खेल्	-6817
▁लापर	-6818
▁कोषको	-6819
▁लिखित	-6820
वेदनशील	-6821
नुपर्‍यो	-6822
▁फागुनमा	-6823
▁बजेसम्म	-6824
▁निरीक्षक	-6825
▁प्रणालीमा	-6826
▁बिरामीलाई	-6827
▁लोकान्तरले	-6828
▁सञ्चारमाध्यम	-6829
▁प्रजातान्त्रिक	-6830
गन	-6831
ion	-6832
समु	-6833
▁उच	-6834
▁हद	-6835
▁५६	-6836
गणना	-6837
ङ्गी	-6838
२०१८	-6839
▁ध्व	-6840
▁हले	-6841
▁आतंक	-6842
▁गाली	-6843
▁ब्रि	-6844
▁भैलो	-6845
▁सुरू	-6846
▁हङकङ	-6847
क्रममा	-6848
हामीले	-6849
▁पर्यट	-6850
▁पाठ्य	-6851
▁प्रचलन	-6852
▁सद्भाव	-6853
▁सेप्टे	-6854
▁अदालतको	-6855
▁किसिमका	-6856
▁पदमार्ग	-6857
▁मर्यादा	-6858
▁सन्चालन	-6859
▁कार्यक्रमहरु	-6860
औषध	-6861
मणि	-6862
िको	-6863
ियाँ	-6864
▁चामल	-6865
▁मातृ	-6866
▁लियो	-6867
▁सिद्ध	-6868
▁सेन्ट	-6869
▁संसदमा	-6870
▁उत्पादक	-6871
▁समायोजन	-6872
▁स्वयम्भ	-6873
▁कम्पनीका	-6874
▁तपाईंलाई	-6875
▁क्षेत्रफल	-6876
▁!!	-6877
▁in	-6878
▁गड	-6879
▁भय	-6880
▁४३	-6881
र्की	-6882
लोजी	-6883
संगै	-6884
स्पति	-6885
▁अनाव	-6886
▁जनमत	-6887
▁निरी	-6888
नुहोस्	-6889
भित्रका	-6890
▁ढुङ्गा	-6891
▁दिएपछि	-6892
▁पवित्र	-6893
▁कुराहरु	-6894
▁जोखिममा	-6895
▁तिहारमा	-6896
▁दिनदेखि	-6897
▁विशेषता	-6898
▁मन्त्रालयमा	-6899
▁भ्रष्टाचारको	-6900
,‘	-6901
िए	-6902
्ठा	-6903
चिमा	-6904
लीको	-6905
शोषण	-6906
कारले	-6907
▁दायर	-6908
▁नामा	-6909
▁प्रब	-6910
मात्रै	-6911
▁उठाउन	-6912
▁उपहार	-6913
▁कान्छ	-6914
▁कामका	-6915
▁गएपछि	-6916
▁तीब्र	-6917
▁पुर्न	-6918
▁बिद्य	-6919
▁आगलागी	-6920
▁कमजोरी	-6921
▁बनाउँछ	-6922
▁लेखेको	-6923
▁सुरुमा	-6924
▁एम्बुले	-6925
▁कारोवार	-6926
▁प्रान्त	-6927
▁महासङ्घ	-6928
▁प्रतिवद्ध	-6929
▁प्लास्टिक	-6930
▁सुरक्षाको	-6931
▁मन्त्रीलाई	-6932
ay	-6933
भौ	-6934
चौर	-6935
फाई	-6936
ेरु	-6937
▁ट्	-6938
म्की	-6939
वर्ग	-6940
▁असल	-6941
▁शौच	-6942
न्सको	-6943
▁गुणा	-6944
▁घाटा	-6945
▁जुवा	-6946
▁बज्र	-6947
▁अभ्या	-6948
▁उप्रे	-6949
▁बुझाइ	-6950
ानिस्ता	-6951
▁जनताका	-6952
▁पाएपछि	-6953
▁विरोधमा	-6954
▁बिस्तारै	-6955
▁मानिसहरू	-6956
▁माल्दिभ्	-6957
▁केन्द्रिय	-6958
▁गर्नुहुन्छ	-6959
▁स्वतन्त्रता	-6960
ag	-6961
ँदे	-6962
दण्ड	-6963
र्था	-6964
▁अड्	-6965
▁नलि	-6966
▁युट	-6967
कारका	-6968
▁गाँउ	-6969
▁नोभे	-6970
▁बाेल	-6971
▁विमल	-6972
▁स्तर	-6973
स्थापन	-6974
▁उस्तै	-6975
▁मर्निङ	-6976
▁मार्ने	-6977
▁सिँचाइ	-6978
▁अपराजित	-6979
▁भैरहेको	-6980
▁विविधता	-6981
▁शिक्षामा	-6982
▁अमेरिकाले	-6983
शनल	-6984
एनन्	-6985
▁काय	-6986
▁फरा	-6987
▁संख	-6988
▁पिता	-6989
▁मनोन	-6990
▁सत्त	-6991
ालगायत	-6992
▁अग्लो	-6993
▁किन्न	-6994
▁बाह्य	-6995
▁बिदेश	-6996
▁संगित	-6997
▁दिशामा	-6998
▁सेनाले	-6999
▁श्रद्धा	-7000
▁एकाबिहान	-7001
▁बाेलपत्र	-7002
▁हुनसक्ने	-7003
▁रामबहादुर	-7004
▁रोजगारीको	-7005
▁पारिश्रमिक	-7006
▁विद्यार्थीको	-7007
ँटा	-7008
गरि	-7009
र्प	-7010
▁५२	-7011
धनका	-7012
्छन्	-7013
▁And	-7014
▁नरम	-7015
▁नेट	-7016
▁अरुण	-7017
▁एसिड	-7018
▁छैन्	-7019
▁बाँध	-7020
▁महरा	-7021
वहारिक	-7022
शालामा	-7023
▁हटाउन	-7024
▁हुन्न	-7025
▁बिषयमा	-7026
▁हुम्ला	-7027
▁निष्कास	-7028
▁पारदर्श	-7029
▁यौनशोषण	-7030
▁संसोधित	-7031
▁अत्यन्तै	-7032
▁पश्चिममा	-7033
▁गुणस्तरीय	-7034
▁कुराकानीमा	-7035
is	-7036
जग	-7037
तन	-7038
निकी	-7039
प्पो	-7040
्रास	-7041
▁घटि	-7042
ख्यात	-7043
पोखरी	-7044
▁अनुप	-7045
▁तातो	-7046
▁दस्त	-7047
▁बाबा	-7048
▁भाषण	-7049
सम्ममा	-7050
▁डाँडा	-7051
▁निवार	-7052
▁बराबर	-7053
▁बस्यो	-7054
विरुद्व	-7055
▁उद्यमी	-7056
▁कर्तव्य	-7057
▁मौद्रिक	-7058
▁ल्याएका	-7059
▁ल्याइएको	-7060
▁समारोहमा	-7061
▁शुद्धीकरण	-7062
▁संक्षिप्त	-7063
▁पुनःनिर्माण	-7064
ंस	-7065
स्पद	-7066
▁कुप	-7067
▁२०५३	-7068
हरूबाट	-7069
▁आत्मा	-7070
▁एकपटक	-7071
▁कमिटी	-7072
▁चाँडै	-7073
▁राजपा	-7074
▁संवत्	-7075
▁तस्वीर	-7076
▁निकायको	-7077
▁प्रतिष्	-7078
▁मेलमिला	-7079
▁उद्योगमा	-7080
▁भन्नुहुन्छ	-7081
ट्स	-7082
पहि	-7083
साधन	-7084
▁कुँ	-7085
▁सरल	-7086
▁खाडी	-7087
▁खानु	-7088
▁फोहर	-7089
▁बस्त	-7090
▁भएकै	-7091
▁भिसा	-7092
▁वेला	-7093
▁हत्य	-7094
▁आफुले	-7095
▁वसेको	-7096
▁छोरीको	-7097
▁टोलीका	-7098
▁लेखेका	-7099
▁माइतीघर	-7100
▁संसारलाई	-7101
राष्ट्रपति	-7102
▁राजनीनामा	-7103
▁रामचन्द्र	-7104
▁संयोजकत्वमा	-7105
▁पत्रकारिताको	-7106
नेड	-7107
सेन	-7108
०७४	-7109
▁५८	-7110
कृया	-7111
सेवी	-7112
▁चिट	-7113
▁स्क	-7114
ञ्चार	-7115
र्वेद	-7116
हिबार	-7117
▁एचआइ	-7118
▁गंगा	-7119
▁गरीब	-7120
▁फाइल	-7121
▁बयान	-7122
▁विकट	-7123
▁फाइनल	-7124
▁उपयोगी	-7125
▁एकताको	-7126
▁निवासी	-7127
▁परियार	-7128
▁पर्वको	-7129
▁आइरहेको	-7130
▁पुरुषलाई	-7131
▁माउन्टेन	-7132
▁कार्यशैली	-7133
▁बालबालिकाको	-7134
▁प्रचारप्रसार	-7135
▁यौनशोषणविरुद्व	-7136
लय	-7137
१४	-7138
िती	-7139
▁उम	-7140
▁मर	-7141
वाली	-7142
विका	-7143
एमाले	-7144
खास्त	-7145
सिएको	-7146
▁ल्हो	-7147
▁हृदय	-7148
▁शाहले	-7149
▁टोलीको	-7150
▁नेताको	-7151
▁मैत्री	-7152
▁अनुभूति	-7153
▁देखाउने	-7154
▁नेकपाका	-7155
▁सदस्यले	-7156
▁विस्तारै	-7157
आउ	-7158
सह	-7159
कका	-7160
महा	-7161
हिर	-7162
०००	-7163
दिशा	-7164
▁औसत	-7165
▁पला	-7166
▁पल्	-7167
▁सदा	-7168
चार्ज	-7169
ल्चोक	-7170
वस्तु	-7171
▁अदुवा	-7172
▁हलेसी	-7173
▁आत्मसा	-7174
▁कार्यद	-7175
▁कोठामा	-7176
▁नपाएको	-7177
▁निवारण	-7178
▁पद्धति	-7179
▁स्तरमा	-7180
▁इतिहासमा	-7181
▁नाकाबन्द	-7182
▁स्वयम्भू	-7183
▁हावापानी	-7184
▁उपत्यकाका	-7185
▁अफगानिस्ता	-7186
▁एक्स्चेञ्ज	-7187
▁भृकुटीमण्ड	-7188
▁अन्तरक्रिया	-7189
▁४१	-7190
जेन्	-7191
तीले	-7192
वान्	-7193
▁तोड	-7194
्युसन	-7195
▁उदार	-7196
▁बताइ	-7197
▁हिरा	-7198
▁अन्यो	-7199
▁आफैले	-7200
▁खोज्न	-7201
▁नगर्न	-7202
▁परिसर	-7203
▁एचआइभी	-7204
▁गर्छौं	-7205
▁तेश्रो	-7206
▁लगाउनु	-7207
▁वैठकको	-7208
▁नम्बरको	-7209
▁विभागको	-7210
▁उत्पादित	-7211
▁त्यहाँको	-7212
▁इन्जिनियर	-7213
▁विस्थापित	-7214
▁सिंहदरबार	-7215
▁असन्तुष्टि	-7216
्ये	-7217
▁घि	-7218
केको	-7219
नुको	-7220
▁ड्र	-7221
▁बास	-7222
▁सधै	-7223
न्सले	-7224
फोनको	-7225
▁अशोक	-7226
▁अस्थ	-7227
▁तिर्	-7228
▁रौतह	-7229
संरचना	-7230
▁अपाङग	-7231
▁घरबाट	-7232
▁परिमा	-7233
▁प्रको	-7234
▁सिकेर	-7235
▁हालको	-7236
▁निर्दो	-7237
▁तामाङले	-7238
▁दरबन्दी	-7239
▁दाजुभाइ	-7240
▁रोकिएको	-7241
▁वन्यजन्तु	-7242
▁बुधबारदेखि	-7243
▁महानिर्देशक	-7244
▁स्वास्थ्यमा	-7245
योजक	-7246
स्सा	-7247
▁ओखल	-7248
▁रजि	-7249
▁उड्ड	-7250
▁आर्जन	-7251
▁पर्सा	-7252
▁वडामा	-7253
▁राईजिङ	-7254
▁सहसचिव	-7255
▁अपाङगता	-7256
▁ब्याजदर	-7257
▁हत्यारा	-7258
▁अनावश्यक	-7259
▁परिक्षामा	-7260
▁फेब्रुअरी	-7261
▁सिटिजन्स्	-7262
▁विमानस्थलको	-7263
ol	-7264
घन	-7265
हुन	-7266
▁गई	-7267
ख्रा	-7268
न्यू	-7269
तर्फी	-7270
▁रेखा	-7271
▁हुदा	-7272
▁आउँदो	-7273
▁तिनका	-7274
▁पठाउन	-7275
▁परिषद	-7276
▁बाँके	-7277
▁दस्तुर	-7278
▁बालाजु	-7279
▁मानिने	-7280
▁केटीहरू	-7281
▁निकायमा	-7282
▁लाग्दैन	-7283
▁विश्वभर	-7284
▁सुनैालो	-7285
▁मर्निङवाक	-7286
▁सर्वसम्मत	-7287
ँत	-7288
धर	-7289
▁६२	-7290
याउन	-7291
वर्क	-7292
▁झनै	-7293
▁५००	-7294
निएका	-7295
▁आदान	-7296
▁आप्र	-7297
▁एकेड	-7298
▁कोशि	-7299
▁ट्वी	-7300
▁आशंका	-7301
▁भनेकै	-7302
▁अर्जुन	-7303
▁पाउँदा	-7304
▁बाहिरी	-7305
▁स्वच्छ	-7306
▁रुपियाँ	-7307
▁पर्यटकको	-7308
▁हजारभन्दा	-7309
▁पेट्रोलियम	-7310
▁विद्यालयको	-7311
यू	-7312
षे	-7313
ँको	-7314
▁रै	-7315
▁लस	-7316
▁५७	-7317
र्टर	-7318
लोमा	-7319
सेयर	-7320
▁कलि	-7321
▁होम	-7322
न्याय	-7323
पश्चा	-7324
पिएको	-7325
▁नबुझ	-7326
▁वायु	-7327
▁अञ्चल	-7328
▁यसपाल	-7329
▁राजेश	-7330
▁अलपत्र	-7331
▁कोलम्ब	-7332
▁खाल्डो	-7333
▁नखस्दै	-7334
▁साँच्च	-7335
▁आस्थाको	-7336
▁उपाध्या	-7337
▁कमिटीको	-7338
▁क्यानेड	-7339
▁राज्यका	-7340
▁चाहन्छौं	-7341
▁नागरिकले	-7342
▁प्रायोजन	-7343
▁वैकल्पिक	-7344
▁सरकारसँग	-7345
▁देखिन्छन्	-7346
▁निस्कनेहरु	-7347
▁पंक्तिबद्ध	-7348
▁प्रोत्साहन	-7349
थान	-7350
सिस	-7351
हाइ	-7352
▁धर्	-7353
▁याक	-7354
▁लोड	-7355
▁हौं	-7356
▁करिव	-7357
▁खाएर	-7358
▁जनाए	-7359
▁पुगि	-7360
▁रोक्	-7361
▁शरणा	-7362
▁सिरि	-7363
भनेन्स	-7364
▁पक्का	-7365
▁बेरोज	-7366
▁मिर्ग	-7367
▁सैन्य	-7368
▁गाउँका	-7369
▁उद्योगले	-7370
▁बढिरहेको	-7371
▁गर्भनेन्स	-7372
▁संवेदनशील	-7373
▁क्यानेडियन	-7374
▁दीर्घकालीन	-7375
▁हेर्नुहोला	-7376
यस	-7377
०९	-7378
किए	-7379
▁असु	-7380
▁उनै	-7381
रूपमा	-7382
र्भिक	-7383
▁कुखु	-7384
▁गिरी	-7385
▁ध्रु	-7386
▁नायब	-7387
▁बनेर	-7388
▁ब्यब	-7389
▁राखे	-7390
▁स्टो	-7391
▁कत्ति	-7392
▁लुकाउ	-7393
▁विकले	-7394
▁गराउनु	-7395
▁समाजले	-7396
▁सम्मको	-7397
▁सोलुखु	-7398
▁धेरैजसो	-7399
▁ब्रान्ड	-7400
▁मिल्दैन	-7401
▁परिवारमा	-7402
▁कम्पनीलाई	-7403
▁राष्ट्रको	-7404
▁विविधताले	-7405
▁सेमिफाइनल	-7406
▁सेमिफाइनलमा	-7407
चुङ	-7408
▁४६	-7409
ण्डर	-7410
हाले	-7411
▁ऋषि	-7412
समक्ष	-7413
▁परिक	-7414
▁फर्म	-7415
▁भरमा	-7416
▁भव्य	-7417
▁रोमा	-7418
▁वर्ण	-7419
▁विषा	-7420
▁ठाकुर	-7421
▁त्याग	-7422
▁पुनरा	-7423
▁शीघ्र	-7424
केन्द्र	-7425
▁आफुलाई	-7426
▁उद्योगी	-7427
▁जन्मदिन	-7428
▁उल्लेख्य	-7429
▁पत्रिकाले	-7430
अन	-7431
।'	-7432
ँगा	-7433
धमा	-7434
ुरा	-7435
▁आख	-7436
▁६४	-7437
ड्को	-7438
पाटी	-7439
राले	-7440
▁अलम	-7441
▁कोट	-7442
ञ्चोक	-7443
्र्यो	-7444
▁कपाल	-7445
▁क्षण	-7446
▁जङ्ग	-7447
▁नगरि	-7448
▁निश्	-7449
▁बलमा	-7450
▁रोका	-7451
▁लगाई	-7452
▁हारा	-7453
▁अट्या	-7454
▁कच्चा	-7455
▁क्यास	-7456
▁जित्न	-7457
▁मूख्य	-7458
▁हटाउने	-7459
▁तिहारको	-7460
▁निजामती	-7461
▁पारिएको	-7462
▁पुल्चोक	-7463
▁विपक्षी	-7464
▁सुनुवाइ	-7465
▁आचार्यले	-7466
▁समसामयिक	-7467
▁रुपैयाँको	-7468
▁साधारणसभा	-7469
अब	-7470
ेग	-7471
चाह	-7472
याम	-7473
जनका	-7474
▁धमा	-7475
▁फाउ	-7476
▁लडा	-7477
रहेकी	-7478
हिंसा	-7479
▁आउला	-7480
▁किरण	-7481
▁तहले	-7482
▁नन्द	-7483
▁निति	-7484
▁ब्रह	-7485
प्रदेश	-7486
▁कब्जा	-7487
▁क्रिए	-7488
▁न्यूज	-7489
▁लैजान	-7490
▁खोलामा	-7491
▁गरिएकी	-7492
▁चोर्ने	-7493
▁सिङ्गो	-7494
▁होटलको	-7495
▁गाविसमा	-7496
▁अभियुक्त	-7497
▁त्यसबेला	-7498
▁महिलाहरु	-7499
▁मानिसलाई	-7500
▁दिदीबहिनी	-7501
▁प्रादेशिक	-7502
▁बङ्गलादेश	-7503
et	-7504
राय	-7505
ेन्ड	-7506
▁कदर	-7507
▁चाप	-7508
▁कृति	-7509
▁राजु	-7510
▁शासक	-7511
▁साइत	-7512
▁इटहरी	-7513
▁प्रयो	-7514
▁बाँडि	-7515
▁बार्ह	-7516
▁विशाल	-7517
▁शुक्ल	-7518
▁बुधवार	-7519
▁विक्रम	-7520
▁संसारमा	-7521
▁गर्नेछन्	-7522
▁बेल्जियम	-7523
गम	-7524
यौ	-7525
किल	-7526
प्ट	-7527
वर्ण	-7528
्ररी	-7529
्रिब	-7530
▁मकै	-7531
नीकरण	-7532
▁नागढ	-7533
▁निषे	-7534
▁पठाइ	-7535
▁पारी	-7536
▁स्पे	-7537
▁२०१४	-7538
▁गरिबी	-7539
▁चिन्ह	-7540
▁जागरण	-7541
▁बोलको	-7542
▁सट्टा	-7543
▁स्वतः	-7544
▁प्राप्	-7545
▁मधेसका	-7546
▁यसबारे	-7547
▁युनियन	-7548
फोटोसहित	-7549
▁जापानमा	-7550
▁अस्वीकार	-7551
▁खेलाडीले	-7552
▁समुदायले	-7553
▁कार्यदिशा	-7554
▁नेताहरूले	-7555
▁प्रस्तुति	-7556
ंै	-7557
▁ओम	-7558
▁खर	-7559
▁थो	-7560
▁पथ	-7561
कामा	-7562
प्रद	-7563
▁चीट	-7564
▁बचन	-7565
▁बिम	-7566
▁लुट	-7567
▁सिल	-7568
▁२०३	-7569
काउने	-7570
देवको	-7571
धारित	-7572
पन्थी	-7573
पुर्ण	-7574
▁इलाम	-7575
▁डिस्	-7576
▁फ्या	-7577
▁समुद	-7578
▁सिको	-7579
▁ओखलढु	-7580
▁पर्नेछ	-7581
▁बुझ्ने	-7582
▁सरसफाइ	-7583
▁भन्छिन्	-7584
▁अस्तित्व	-7585
▁ट्रम्पले	-7586
▁लुकाउछन्	-7587
▁चलचित्रमा	-7588
ir	-7589
ut	-7590
▁.	-7591
▁ः	-7592
कता	-7593
पछी	-7594
ुरि	-7595
्वल	-7596
जीले	-7597
डाको	-7598
लाइक	-7599
श्री	-7600
स्तर	-7601
▁असा	-7602
▁हँु	-7603
▁हिँ	-7604
वाहित	-7605
▁लिनु	-7606
▁हिरो	-7607
▁देशले	-7608
▁बलिउड	-7609
▁मान्न	-7610
▁हेलिक	-7611
▁राजश्व	-7612
▁राम्रै	-7613
▁वरिपरि	-7614
▁दिमागमा	-7615
▁बेल्जिय	-7616
▁अभियोगमा	-7617
▁राजतन्त्र	-7618
▁अनुसन्धानमा	-7619
▁कृष्णप्रसाद	-7620
ea	-7621
▁w	-7622
▁ष	-7623
ँचो	-7624
किन	-7625
स्न	-7626
▁अछ	-7627
नुनी	-7628
बेटी	-7629
▁रही	-7630
जिम्म	-7631
ेरिया	-7632
▁खराब	-7633
▁गएरा	-7634
▁चापा	-7635
▁दण्ड	-7636
▁बेसी	-7637
▁कराते	-7638
▁गरेरै	-7639
▁डेटिङ	-7640
▁परिणत	-7641
▁महँगो	-7642
▁औषधिको	-7643
▁तपाइको	-7644
▁मङ्सिर	-7645
▁सम्पर्	-7646
▁साइटमा	-7647
▁तापक्रम	-7648
▁क्याम्पस	-7649
▁अधिकारीको	-7650
▁खेलिरहेको	-7651
▁कार्ययोजना	-7652
▁जनकपुरधामको	-7653
▁तेस्रोलिंगी	-7654
ौज	-7655
७२	-7656
तिय	-7657
▁७२	-7658
ङ्मा	-7659
▁मृत	-7660
▁राय	-7661
काण्ड	-7662
▁बराम	-7663
▁बाधा	-7664
▁माला	-7665
▁मुलु	-7666
▁रनको	-7667
▁सागर	-7668
▁रहँदा	-7669
▁अट्याक	-7670
▁अधिकतम	-7671
▁भएकोमा	-7672
▁सूचिमा	-7673
▁गराइएको	-7674
▁पूर्वमा	-7675
▁महाकाली	-7676
▁स्रोतको	-7677
्रिब्युसन	-7678
▁भ्रमणबाट	-7679
▁उत्पादनको	-7680
▁नेताहरुले	-7681
▁वीरेन्द्र	-7682
▁विद्यार्थीहरुको	-7683
गाह	-7684
पूर	-7685
ीता	-7686
न्डर	-7687
भावी	-7688
र्जी	-7689
▁आजा	-7690
▁गाइ	-7691
नालाई	-7692
म्बार	-7693
ुगलको	-7694
्यानल	-7695
▁गर्छन	-7696
▁चाडबा	-7697
▁नेत्र	-7698
▁नैतिक	-7699
▁महोत्त	-7700
▁समर्थक	-7701
▁उपयोगका	-7702
▁तहहरुको	-7703
▁बनाउँदै	-7704
▁विज्ञप्	-7705
▁क्रिएटिभ	-7706
▁घटिरहेको	-7707
▁महासंघका	-7708
▁समाजसेवी	-7709
▁एट्रिब्युसन	-7710
▁राष्ट्रपतिमा	-7711
गं	-7712
हाम	-7713
क्ती	-7714
बादी	-7715
ाममा	-7716
▁डाय	-7717
▁गोदा	-7718
▁परेर	-7719
▁बिका	-7720
▁विश्	-7721
▁एशिया	-7722
▁चर्को	-7723
▁दार्चु	-7724
▁भएसँगै	-7725
▁लामाले	-7726
▁समूहमा	-7727
▁हुनेमा	-7728
▁फराकिलो	-7729
▁बजेदेखि	-7730
▁खेलाडीहरु	-7731
▁नवनियुक्त	-7732
▁नेपालसहित	-7733
▁वर्षभित्रै	-7734
▁प्रतिवेदनमा	-7735
‍य	-7736
▁6	-7737
out	-7738
▁०६	-7739
ंदैन	-7740
ड्रो	-7741
्युब	-7742
▁छिन	-7743
▁बोट	-7744
▁भिम	-7745
▁साफ	-7746
चाहिँ	-7747
नियाँ	-7748
लदेखि	-7749
सक्दा	-7750
▁आवको	-7751
▁गराए	-7752
▁गौरी	-7753
▁टीभी	-7754
▁धनकु	-7755
▁रुकु	-7756
▁फड्को	-7757
▁उड्डयन	-7758
▁खाल्डा	-7759
▁मानवको	-7760
▁यसैबीच	-7761
▁पोखराको	-7762
▁भ्रमणका	-7763
▁शुक्रवार	-7764
▁सम्झनामा	-7765
▁अपहरणकारी	-7766
▁रिपब्लिकन	-7767
लट	-7768
गको	-7769
प्न	-7770
चीको	-7771
▁आरा	-7772
▁ताम	-7773
▁पदम	-7774
फ्टिङ	-7775
मानमा	-7776
यस्तो	-7777
वश्यक	-7778
▁असहज	-7779
▁कष्ट	-7780
▁विष्	-7781
▁इन्धन	-7782
▁ख्याल	-7783
▁दिनेश	-7784
▁प्राइ	-7785
▁साबित	-7786
▁खुल्यो	-7787
▁जनतामा	-7788
▁पण्डित	-7789
▁त्यसबाट	-7790
▁निमित्त	-7791
▁प्रत्या	-7792
▁प्रस्थान	-7793
▁धर्मावलम्बीको	-7794
est	-7795
छिन	-7796
ड्य	-7797
▁४९	-7798
खुल्	-7799
गीले	-7800
लीले	-7801
▁उखु	-7802
▁गडब	-7803
▁जमी	-7804
▁फला	-7805
▁बाम	-7806
▁अङ्ग	-7807
▁केशव	-7808
▁डाउन	-7809
▁डिसे	-7810
▁तुवा	-7811
▁विपद	-7812
▁गोष्ठ	-7813
▁अनुरुप	-7814
▁जितेका	-7815
▁बेलुका	-7816
▁म्याने	-7817
▁स्वभाव	-7818
▁तपाईलाई	-7819
▁प्रेरणा	-7820
▁शक्तिले	-7821
▁श्रीलंका	-7822
▁साहित्यकार	-7823
आज	-7824
िप	-7825
एड्	-7826
ण्ठ	-7827
ड्दै	-7828
नयाँ	-7829
▁आउट	-7830
ड्रिड	-7831
दिन्छ	-7832
प्रेस	-7833
▁उल्ल	-7834
▁लाभा	-7835
▁२०२०	-7836
लगत्तै	-7837
वास्ता	-7838
▁कमन्स	-7839
▁नमिल्	-7840
▁बढ्नु	-7841
▁मार्क	-7842
▁रिक्त	-7843
▁वालेस	-7844
▁संभाव	-7845
▁सशक्त	-7846
▁हुदैन	-7847
▁एकातिर	-7848
▁छलफलमा	-7849
▁पक्षको	-7850
▁बराबरी	-7851
▁बैठकका	-7852
▁चाडपर्व	-7853
▁तुवाचुङ	-7854
▁प्रचलित	-7855
▁योग्यता	-7856
▁विष्टले	-7857
▁सकेसम्म	-7858
▁आयोजनाका	-7859
▁कार्यलाई	-7860
▁गैरजिम्म	-7861
▁देखिँदैन	-7862
▁बिक्रीको	-7863
▁थाइल्यान्ड	-7864
पुल	-7865
लम्	-7866
ारू	-7867
▁६१	-7868
प्लव	-7869
मानी	-7870
▁जथा	-7871
▁माओ	-7872
अलाइक	-7873
क्षमा	-7874
यित्व	-7875
▁अखिल	-7876
▁अर्ग	-7877
▁जसका	-7878
▁नसके	-7879
▁निरू	-7880
▁युएई	-7881
▁धनराज	-7882
▁पार्क	-7883
▁भूभाग	-7884
▁हात्ती	-7885
▁कम्तिमा	-7886
▁कानुनले	-7887
▁सार्वभौ	-7888
▁आयोजनाले	-7889
▁निष्कासन	-7890
▁पाण्डेले	-7891
▁भूकम्पले	-7892
▁मिर्गौला	-7893
▁विद्यालयले	-7894
प्य	-7895
▁६३	-7896
ंगिक	-7897
क्सन	-7898
क्सि	-7899
बुबा	-7900
वाको	-7901
सीसी	-7902
▁करण	-7903
▁छवि	-7904
▁अञ्च	-7905
▁मिले	-7906
▁कामना	-7907
▁गतिमा	-7908
▁जीर्ण	-7909
▁धनुषा	-7910
▁पाउडर	-7911
▁भुटान	-7912
▁मेसिन	-7913
▁रेष्ट	-7914
▁गर्दछु	-7915
▁तिम्रो	-7916
▁परेपछि	-7917
▁मुलुकी	-7918
▁नेपालमै	-7919
▁सुन्तला	-7920
▁कैलालीको	-7921
▁क्षेत्री	-7922
▁गैरकानुनी	-7923
▁बुढीगण्डकी	-7924
▁पुनःस्थापना	-7925
▁भृकुटीमण्डपमा	-7926
ठू	-7927
ीम	-7928
shi	-7929
जिन	-7930
वले	-7931
क्वा	-7932
पुरा	-7933
▁रजत	-7934
▁लोभ	-7935
▁हेम	-7936
▁१४०	-7937
न्तिक	-7938
▁आपसी	-7939
▁नदेख	-7940
▁निगर	-7941
▁लगेर	-7942
▁एयरको	-7943
▁खबरमा	-7944
▁देखिन	-7945
▁पहलमा	-7946
▁कुमारी	-7947
▁चुक्ता	-7948
▁यसवर्ष	-7949
▁लगत्तै	-7950
्नुपर्ने	-7951
▁किसानले	-7952
▁दशकसम्म	-7953
▁प्रवासी	-7954
▁मिल्नेछ	-7955
▁त्यसकारण	-7956
▁निम्त्या	-7957
▁स्थायित्व	-7958
▁शंकरप्रसाद	-7959
घात	-7960
▁७६	-7961
दायक	-7962
▁!!!	-7963
▁बाघ	-7964
उनुभयो	-7965
द्धारा	-7966
प्रकाश	-7967
▁तरङ्ग	-7968
▁तिब्र	-7969
▁महतले	-7970
▁रूपले	-7971
▁विपरी	-7972
▁हेटौं	-7973
पट्टिको	-7974
▁अस्थिर	-7975
▁आपत्ति	-7976
▁टेक्नो	-7977
▁प्यारा	-7978
▁समूहका	-7979
▁सिंहले	-7980
▁नेताहरू	-7981
▁पाक्षिक	-7982
▁यादवलाई	-7983
▁संगठनको	-7984
▁सदस्यको	-7985
▁स्क्रिन	-7986
▁अनुसारको	-7987
▁फर्किएका	-7988
▁ब्यवस्था	-7989
▁मेलमिलाप	-7990
▁नेतृत्वले	-7991
▁प्रकाशमान	-7992
▁भिडियोहरु	-7993
▁संस्कृतिको	-7994
▁अनुसन्धानका	-7995
▁प्रतिष्पर्धा	-7996
०६	-7997
एला	-7998
टेको	-7999
थिन्	-8000
ाचार	-8001
▁इमा	-8002
▁फाल	-8003
▁हाफ	-8004
पेक्ष	-8005
र्द्ध	-8006
▁एन्ज	-8007
▁डाटा	-8008
▁शहरी	-8009
स्तरमा	-8010
▁एजेन्	-8011
▁काष्ठ	-8012
▁वासिङ	-8013
▁देखाएर	-8014
▁प्रकोप	-8015
▁प्रदीप	-8016
▁उत्तरमा	-8017
▁निगरानी	-8018
▁बैठकबाट	-8019
▁भीमदत्त	-8020
▁दृष्टिले	-8021
▁यात्रामा	-8022
▁प्राचीनका	-8023
▁व्यवसायिक	-8024
▁संस्करणको	-8025
▁सुरक्षाकर्मी	-8026
▁सुदूरपश्चिमका	-8027
ंच	-8028
१३	-8029
पती	-8030
▁उभ	-8031
परको	-8032
राका	-8033
▁आफ्	-8034
▁घले	-8035
भाग्य	-8036
▁करको	-8037
▁द्वि	-8038
▁राना	-8039
▁सानै	-8040
बमोजिम	-8041
भूकम्प	-8042
▁नामको	-8043
▁बिश्व	-8044
न्नतिका	-8045
▁पठाउनु	-8046
▁पास्टर	-8047
▁मूर्ति	-8048
षाध्यक्ष	-8049
▁प्रतिफल	-8050
▁बढाइनेछ	-8051
▁मुस्लिम	-8052
▁लागूऔषध	-8053
▁घिमिरेले	-8054
▁बिरामीको	-8055
▁मुलुकलाई	-8056
▁चलचित्रको	-8057
▁नागढुङ्गा	-8058
▁राजनीतिको	-8059
▁उपभोक्ताको	-8060
▁अनुसन्धानले	-8061
▁स्मार्टफोनको	-8062
aj	-8063
▁डल	-8064
राइट	-8065
▁इस्	-8066
▁चौत	-8067
▁थोक	-8068
▁पढौ	-8069
▁बिर	-8070
▁भाई	-8071
▁रवि	-8072
शमशेर	-8073
▁गठित	-8074
▁मनोज	-8075
▁मिलन	-8076
▁संगै	-8077
▁कहाली	-8078
▁नियमन	-8079
▁महारा	-8080
▁सन्दी	-8081
ध्यात्म	-8082
प्रचण्ड	-8083
▁तालिका	-8084
▁बाख्रा	-8085
▁मुलुकले	-8086
▁कामदारको	-8087
▁प्रयोगमा	-8088
▁हेर्नुस्	-8089
▁व्यावहारिक	-8090
▁स्मार्टफोन	-8091
▁निर्माणाधीन	-8092
▁प्रतिवद्धता	-8093
जिर	-8094
पेर	-8095
काले	-8096
डीमा	-8097
▁पेन	-8098
चालित	-8099
▁अस्व	-8100
▁आवमा	-8101
▁कन्ट	-8102
▁गाडि	-8103
▁पारे	-8104
▁फरार	-8105
▁विकि	-8106
▁सधैँ	-8107
▁किनकी	-8108
▁जोडिन	-8109
▁ड्रेस	-8110
▁ढिलाइ	-8111
▁प्याक	-8112
▁nepali	-8113
▁खुद्रा	-8114
▁खोज्नु	-8115
▁नसक्नु	-8116
▁सावधान	-8117
▁अन्तरगत	-8118
▁खानेकुरा	-8119
▁टेलिफिल्	-8120
▁नवलपरासी	-8121
▁रोजगारीका	-8122
▁साहित्यिक	-8123
▁सोलुखुम्बु	-8124
th	-8125
जल	-8126
काई	-8127
नेस	-8128
पाई	-8129
▁फस	-8130
▁ली	-8131
म्वर	-8132
राही	-8133
वसीय	-8134
▁आयल	-8135
▁एजे	-8136
▁झैं	-8137
▁नमू	-8138
▁भीड	-8139
▁एकको	-8140
दाताले	-8141
▁गतेको	-8142
▁चोकमा	-8143
▁पुनस्	-8144
▁तपाईले	-8145
▁होलान्	-8146
ामन्त्री	-8147
▁भ्रमणको	-8148
विश्वासको	-8149
▁छोराछोरी	-8150
▁रेलमार्ग	-8151
ak	-8152
▁५४	-8153
▁५९	-8154
म्या	-8155
ाउमा	-8156
▁०७२	-8157
▁एप्स	-8158
▁काला	-8159
▁छाला	-8160
▁ढिलो	-8161
▁तीनै	-8162
▁बढ्छ	-8163
▁मलाइ	-8164
ाउँछन्	-8165
▁ओभरमा	-8166
▁पोर्त	-8167
▁लण्डन	-8168
▁जातिको	-8169
▁जापानी	-8170
▁तिवारी	-8171
▁पुरानै	-8172
▁बाढीले	-8173
▁संयोजन	-8174
▁अभिनेता	-8175
▁चिनिएका	-8176
▁जोडिएका	-8177
▁शरणार्थी	-8178
▁प्राध्यापक	-8179
▁व्यवसायीको	-8180
▁गैरजिम्मेवार	-8181
▁प्राचीनकालदेखि	-8182
▁”	-8183
मनो	-8184
लियो	-8185
▁नसक	-8186
▁१९८	-8187
▁खरेल	-8188
▁पावर	-8189
▁पैदा	-8190
▁लघुव	-8191
▁सहजै	-8192
▁अवकाश	-8193
▁अवतरण	-8194
▁थियौं	-8195
र्जस्ती	-8196
▁छात्रा	-8197
▁जटिलता	-8198
▁निर्णा	-8199
▁बजेटमा	-8200
▁बिन्दु	-8201
तापूर्वक	-8202
▁अन्यत्र	-8203
▁प्रतिलि	-8204
▁प्रयत्न	-8205
▁खतिवडाले	-8206
▁पदार्थको	-8207
▁बस्नेतले	-8208
काउनुपर्ने	-8209
▁नेपालगन्ज	-8210
▁न्यूनीकरण	-8211
▁अधिवेशनबाट	-8212
▁आत्मनिर्भर	-8213
▁वसन्तपुरमा	-8214
▁कम्पनीद्वारा	-8215
बन	-8216
१६	-8217
▁j	-8218
पला	-8219
ियु	-8220
▁झै	-8221
▁लड	-8222
दियो	-8223
फोटक	-8224
बाजी	-8225
मनोर	-8226
▁शीत	-8227
▁०७३	-8228
ष्टिक	-8229
▁नराख	-8230
▁मेहन	-8231
▁लुगा	-8232
▁ओप्पो	-8233
▁लक्षण	-8234
▁विनोद	-8235
▁एसोसिए	-8236
▁कपडामा	-8237
▁डोल्पा	-8238
▁निर्भर	-8239
▁भित्री	-8240
▁स्तरीय	-8241
▁स्याङ्	-8242
▁अनुमोदन	-8243
▁अन्तरिम	-8244
▁आयोजकले	-8245
▁उपचारमा	-8246
▁फिल्मको	-8247
▁बज्रपात	-8248
▁सुनुवार	-8249
▁हराउँदै	-8250
▁घरपरिवार	-8251
▁अभिवृद्धि	-8252
▁मूल्यांकन	-8253
▁इन्टरनेटमा	-8254
▁परिवर्तनका	-8255
▁साँस्कृतिक	-8256
▁महेन्द्रनगर	-8257
धक	-8258
ost	-8259
▁गे	-8260
▁कस्	-8261
▁बढे	-8262
▁राइ	-8263
▁सरि	-8264
नासाथ	-8265
पछिको	-8266
पर्धी	-8267
▁उनकै	-8268
▁गणना	-8269
▁ठुला	-8270
▁पुरै	-8271
▁पेन्	-8272
▁पेसा	-8273
▁शिला	-8274
▁सिड्	-8275
▁हतार	-8276
▁।...	-8277
न्दोलन	-8278
▁आरोहण	-8279
▁दिँदा	-8280
▁पुनले	-8281
▁पोखरी	-8282
▁बरामद	-8283
▁भाग्न	-8284
▁उठाउने	-8285
▁गर्दैछ	-8286
▁तस्विर	-8287
▁धनकुटा	-8288
▁बोलायो	-8289
▁लिम्बु	-8290
▁गइरहेको	-8291
▁चितवनको	-8292
▁निर्मित	-8293
▁पक्षलाई	-8294
▁प्यालेस	-8295
▁प्राचीन	-8296
▁बाँकेमा	-8297
▁विवादमा	-8298
▁क्यासिनो	-8299
▁प्रशासनले	-8300
▁सहकार्यमा	-8301
▁अधिकारीहरुले	-8302
चाप	-8303
भ्र	-8304
िकृत	-8305
्यौं	-8306
▁अलै	-8307
▁जनआ	-8308
▁ठोस	-8309
▁बिल	-8310
▁समि	-8311
▁अन्ध	-8312
▁कसरि	-8313
▁कुसु	-8314
▁कोरि	-8315
▁नौलो	-8316
▁पैदल	-8317
▁बाक्	-8318
▁सकिन	-8319
▁सारा	-8320
थ्रीको	-8321
प्रदान	-8322
मनोरञ्	-8323
ेन्टमा	-8324
▁उद्यम	-8325
▁गहिरो	-8326
▁जैविक	-8327
▁पढिने	-8328
▁बुढेश	-8329
▁भूगोल	-8330
▁सिलसि	-8331
▁खेलेका	-8332
▁गरिएमा	-8333
▁डोटीको	-8334
▁बस्दैछ	-8335
▁सुत्के	-8336
▁हजारौं	-8337
▁हेक्टर	-8338
▁बुद्धको	-8339
▁बैङ्कले	-8340
▁भिन्नता	-8341
▁संसद्मा	-8342
▁सकिँदैन	-8343
▁गर्नेलाई	-8344
▁पुस्तकाल	-8345
▁सक्दैनन्	-8346
▁उपत्यकामा	-8347
▁गाउपालिका	-8348
▁पुनस्र्था	-8349
▁विश्वकपको	-8350
▁संलग्नलाई	-8351
▁हेलिकप्टर	-8352
▁विद्यालयका	-8353
▁राज्यप्रमुख	-8354
▁राष्ट्रियसभा	-8355
दश	-8356
५०	-8357
सुर	-8358
न्नँ	-8359
▁अना	-8360
प्याड	-8361
ाउनको	-8362
▁बालक	-8363
नेपाली	-8364
स्थलमा	-8365
▁खसेको	-8366
▁टिमले	-8367
▁तिर्न	-8368
▁भक्का	-8369
▁मार्च	-8370
▁रक्सी	-8371
▁सरस्व	-8372
उनुपर्छ	-8373
म्काभेट	-8374
▁आफैंले	-8375
▁गरिसके	-8376
▁निगमले	-8377
▁रेग्मी	-8378
▁सुब्बा	-8379
▁हकप्रद	-8380
▁ओप्पोले	-8381
▁जनयुद्ध	-8382
▁वनस्पति	-8383
▁निर्णायक	-8384
▁हेर्नलाई	-8385
▁खाल्डाखुल्	-8386
▁बुढेशकालको	-8387
▁कहालीलाग्दो	-8388
▁स्वामित्वमा	-8389
▁सर्वेक्षणलाई	-8390
जम	-8391
१७	-8392
bar	-8393
ite	-8394
ter	-8395
हरि	-8396
हीं	-8397
▁सच	-8398
▁ओटा	-8399
▁जाह	-8400
▁मनि	-8401
▁रेफ	-8402
▁वेद	-8403
▁शहि	-8404
▁सदु	-8405
▁२६७	-8406
पुरको	-8407
साङकी	-8408
▁कुर्	-8409
▁पढाै	-8410
▁बेहो	-8411
▁रोकि	-8412
▁हिल्	-8413
▁हेलि	-8414
एड्सको	-8415
▁जनसरो	-8416
▁तीर्थ	-8417
▁नेवार	-8418
▁रङ्मा	-8419
▁सिस्ट	-8420
▁सेक्स	-8421
▁आजान्स	-8422
▁कागजात	-8423
▁टीभीसी	-8424
▁नामबाट	-8425
▁फुडोमा	-8426
▁चन्द्रा	-8427
▁छुसाङकी	-8428
▁जिन्दगी	-8429
▁बाँदरमा	-8430
▁भागमुनि	-8431
ध्यात्मिक	-8432
▁एफथ्रीको	-8433
▁बारम्बार	-8434
▁सफ्टवेयर	-8435
समुन्नतिका	-8436
▁बाह्रगाउँ	-8437
▁बुधबारबाट	-8438
▁विज्ञप्ति	-8439
▁सन्तुष्टि	-8440
▁सभ्यताहरु	-8441
▁क्रिकेटसंगको	-8442
▁टेलिफिल्मबाट	-8443
▁पूर्वपट्टिको	-8444
▁प्रेमिकामाथि	-8445
▁व्यवस्थापिका	-8446
▁मन्त्रिपरिषद्को	-8447
कू	-8448
धाई	-8449
▁12	-8450
▁६८	-8451
ट्री	-8452
सियल	-8453
▁Nov	-8454
▁जोश	-8455
▁होस	-8456
ण्डोल	-8457
तिकरण	-8458
नान्स	-8459
ष्कार	-8460
हार्य	-8461
▁कन्स	-8462
▁कसुर	-8463
▁डेभल	-8464
▁बर्द	-8465
▁माग्	-8466
▁लिटर	-8467
▁अक्टो	-8468
▁बनायो	-8469
▁बुँदे	-8470
▁मधुमे	-8471
▁उपधारा	-8472
▁खेल्दै	-8473
▁त्रुटि	-8474
▁नभएपछि	-8475
▁नसकेका	-8476
▁बालकको	-8477
▁भनेपछि	-8478
▁सन्दीप	-8479
▁सुवर्ण	-8480
▁नामाकरण	-8481
▁काठमान्ड	-8482
▁कालोपत्र	-8483
▁पत्राचार	-8484
▁पार्टीकी	-8485
▁अपरिहार्य	-8486
▁काष्ठमण्ड	-8487
▁क्रान्तिकारी	-8488
ul	-8489
नस	-8490
ँहा	-8491
सनल	-8492
▁1.	-8493
▁७४	-8494
mail	-8495
ण्डी	-8496
तेको	-8497
बाटो	-8498
▁आशि	-8499
▁डाइ	-8500
▁दुध	-8501
▁भुक	-8502
▁थाल्	-8503
▁पुजा	-8504
▁२०६४	-8505
कस्मिक	-8506
माथिको	-8507
हारीमा	-8508
▁आक्रो	-8509
▁उठेको	-8510
▁दलहरु	-8511
▁सृजना	-8512
द्यान्न	-8513
▁कमाउने	-8514
▁जानकार	-8515
▁विपरीत	-8516
▁शाहीले	-8517
▁सुनसरी	-8518
▁काउन्सि	-8519
▁निर्दोष	-8520
▁सदुपयोग	-8521
▁खेलाडीको	-8522
▁ताराखोला	-8523
▁भानुभक्त	-8524
▁सरकारबाट	-8525
▁अस्पतालका	-8526
▁उद्योगलाई	-8527
▁अविश्वासको	-8528
मनोरञ्जनात्मक	-8529
',	-8530
oo	-8531
धम	-8532
सेज	-8533
ुलु	-8534
ेटर	-8535
▁थर	-8536
▁नज	-8537
▁जसो	-8538
▁रुच	-8539
▁हप्	-8540
भेन्ट	-8541
▁चिना	-8542
▁छापा	-8543
▁जंगल	-8544
▁जुम्	-8545
▁नदिन	-8546
▁फेर्	-8547
▁रङ्ग	-8548
▁सेती	-8549
▁आमाले	-8550
▁बन्दर	-8551
▁सिंगा	-8552
▁आउँछन्	-8553
▁आरक्षण	-8554
▁किशोरी	-8555
▁गाडीले	-8556
▁युवाको	-8557
▁सेल्फी	-8558
▁त्यसैको	-8559
▁पुरुषको	-8560
▁ल्होसार	-8561
▁अनियमिता	-8562
▁गृहकार्य	-8563
▁अनियमितता	-8564
▁अस्पतालको	-8565
▁सर्वेश्वर	-8566
आउट	-8567
चमा	-8568
▁एड	-8569
▁७८	-8570
काएर	-8571
ब्बर	-8572
श्मि	-8573
ुद्ध	-8574
▁डरा	-8575
▁फाई	-8576
▁यात	-8577
फ्लाई	-8578
संख्य	-8579
▁एसपी	-8580
▁कागज	-8581
▁फारम	-8582
▁रहेन	-8583
▁रित्	-8584
▁स्टक	-8585
▁स्टा	-8586
▁२०११	-8587
न्दर्य	-8588
▁गतिको	-8589
▁तुलसी	-8590
▁बुलेट	-8591
▁भएकाे	-8592
▁शहरमा	-8593
▁श्रोत	-8594
▁अर्बको	-8595
▁खोज्दै	-8596
▁त्रिवि	-8597
▁अर्जेन्	-8598
▁चौमासिक	-8599
▁टेक्स्ट	-8600
▁देखाउँछ	-8601
▁बनाउँदा	-8602
▁भण्डारण	-8603
द्धान्तिक	-8604
▁भिडियोका	-8605
▁विद्यमान	-8606
▁विशेषगरी	-8607
▁परिमार्जन	-8608
▁रूपान्तरण	-8609
▁लिमिटेडले	-8610
▁व्यवसायमा	-8611
▁आध्यात्मिक	-8612
▁काठमाडौंका	-8613
▁कोषाध्यक्ष	-8614
▁खाल्डाखुल्डी	-8615
▁ज्ञानेन्द्रको	-8616
▁पत्रकारहरुलाई	-8617
as	-8618
ch	-8619
lo	-8620
‍न	-8621
www	-8622
तेर	-8623
न्ह	-8624
▁त्	-8625
▁वी	-8626
▁चरम	-8627
▁बल्	-8628
ङ्गले	-8629
ाउनका	-8630
▁अक्ष	-8631
▁ग्लो	-8632
▁चल्न	-8633
▁चाहे	-8634
▁जनाल	-8635
▁२०६९	-8636
त्यक्ष	-8637
▁केदार	-8638
▁दलहरू	-8639
▁निहुँ	-8640
▁वृत्त	-8641
▁अन्याय	-8642
▁कसैसँग	-8643
▁छपिएको	-8644
▁ज्याला	-8645
▁पानीमा	-8646
▁बताउने	-8647
▁मुद्धा	-8648
▁मोदीको	-8649
▁समर्पण	-8650
▁स्वास्	-8651
▁एकेडेमी	-8652
▁जथाभावी	-8653
▁राम्ररी	-8654
▁कुपण्डोल	-8655
▁पात्रिका	-8656
▁संलग्नको	-8657
▁भट्टराईसँग	-8658
pp	-8659
▁2.	-8660
डेल्	-8661
यामा	-8662
▁गुज	-8663
▁घाँ	-8664
▁भेद	-8665
habar	-8666
च्छुक	-8667
र्मित	-8668
वादको	-8669
▁ढिला	-8670
▁सकेर	-8671
▁सुदृ	-8672
▁हानी	-8673
▁अवश्य	-8674
▁आफ्नी	-8675
▁आवद्ध	-8676
▁एक्लै	-8677
▁जोड्न	-8678
▁ट्रया	-8679
▁धम्की	-8680
▁नगरेर	-8681
▁नमूना	-8682
▁नोक्स	-8683
▁खोल्ने	-8684
▁गुम्बा	-8685
▁देख्दा	-8686
▁पारेका	-8687
▁फर्काए	-8688
▁बनेपछि	-8689
▁शैलीमा	-8690
▁डाउनलोड	-8691
▁मण्डलमा	-8692
▁सम्बद्ध	-8693
▁सहयोगको	-8694
▁सालदेखि	-8695
▁अतिक्रमण	-8696
▁अर्कालाई	-8697
▁बर्षदेखि	-8698
▁बालाजुको	-8699
▁संरचनामा	-8700
▁स्थितिमा	-8701
▁काठमान्डा	-8702
▁खाद्यान्न	-8703
▁सम्पर्कमा	-8704
▁सुरेन्द्र	-8705
▁पोर्तुगलको	-8706
▁सम्बन्धलाई	-8707
▁परीक्षार्थी	-8708
▁सुरुङमार्गले	-8709
▁स्वतन्त्रताका	-8710
am	-8711
खी	-8712
टाम	-8713
डेट	-8714
वटै	-8715
साल	-8716
हिन	-8717
िएर	-8718
▁तट	-8719
▁८८	-8720
▁चुप	-8721
जिनिय	-8722
वर्ती	-8723
▁प्रि	-8724
▁महास	-8725
▁२०१२	-8726
तर्फको	-8727
▁गाँजा	-8728
▁घुम्न	-8729
▁जेष्ठ	-8730
▁तेह्र	-8731
▁कुखुरा	-8732
▁कुराले	-8733
▁चाहाना	-8734
▁तपार्इ	-8735
▁फुटबलर	-8736
▁मनोनयन	-8737
▁लाग्नु	-8738
▁शौचालय	-8739
▁हिस्सा	-8740
▁आकस्मिक	-8741
▁संगीतमा	-8742
▁चाडबाडको	-8743
▁निश्पक्ष	-8744
▁बेवास्ता	-8745
▁अर्जेन्टि	-8746
▁पृष्ठभूमि	-8747
मगर	-8748
जरको	-8749
▁खाइ	-8750
▁मसि	-8751
▁सोझ	-8752
न्जेल	-8753
लेपछि	-8754
▁उसका	-8755
▁गुरू	-8756
▁घरदै	-8757
▁चितव	-8758
▁फाल्	-8759
▁बन्ध	-8760
▁मुना	-8761
▁रिहा	-8762
▁गोप्य	-8763
▁जुलाई	-8764
▁दिनमै	-8765
▁निम्न	-8766
▁बिर्स	-8767
विज्ञान	-8768
▁अप्रिल	-8769
▁उदेश्य	-8770
▁सिमाना	-8771
▁स्नातक	-8772
▁कपिराइट	-8773
▁गराउँदै	-8774
▁परिसरमा	-8775
▁हाइड्रो	-8776
▁उत्साहित	-8777
▁जनसरोकारका	-8778
▁प्रतिपक्षी	-8779
▁हुनुहुन्थ्यो	-8780
em	-8781
ँै	-8782
वृ	-8783
▁अट	-8784
▁ओझ	-8785
डेरी	-8786
▁कता	-8787
▁बीउ	-8788
▁भोक	-8789
▁कमाइ	-8790
▁पाटन	-8791
▁पायो	-8792
▁रद्द	-8793
▁वहाँ	-8794
▁२०१३	-8795
▁चाहिं	-8796
▁चिन्त	-8797
▁मानेर	-8798
▁रेस्ट	-8799
▁विगतका	-8800
▁विरोधी	-8801
▁साधनको	-8802
▁सुन्दा	-8803
▁राफ्टिङ	-8804
▁सबभन्दा	-8805
▁आप्रवासी	-8806
▁मान्छेले	-8807
▁स्वर्गीय	-8808
▁आन्दोलनका	-8809
▁जिल्लाबाट	-8810
▁सिलसिलामा	-8811
▁सैद्धान्तिक	-8812
▁फर्काउनुपर्ने	-8813
्द	-8814
चरण	-8815
▁कं	-8816
ङ्गे	-8817
जीवी	-8818
▁घुस	-8819
▁पित	-8820
डिएको	-8821
तीर्ण	-8822
▁डेलि	-8823
▁तुला	-8824
▁बझाङ	-8825
▁रोचक	-8826
▁वेसी	-8827
क्ष्मी	-8828
स्कृति	-8829
▁कुसुम	-8830
▁जान्न	-8831
▁दुर्इ	-8832
▁पार्व	-8833
▁भनिने	-8834
▁चलाएको	-8835
▁सम्झना	-8836
▁तरङ्गित	-8837
▁नभएकाले	-8838
▁न्यूजले	-8839
▁भक्कानि	-8840
▁मधेसीको	-8841
▁अन्त्यमा	-8842
▁दक्षिणमा	-8843
▁प्रकृतिको	-8844
▁टेक्नोलोजी	-8845
▁नेपालीहरुको	-8846
▁पुर्‍याउनका	-8847
▁विज्ञप्तिमा	-8848
ुप	-8849
२७	-8850
▁o	-8851
पास	-8852
सील	-8853
▁७३	-8854
दिनु	-8855
शिया	-8856
▁ओझा	-8857
▁चरा	-8858
▁०७४	-8859
ग्रहण	-8860
न्यूज	-8861
विशेष	-8862
ाउँमा	-8863
▁इमेल	-8864
▁फस्ट	-8865
▁बेनी	-8866
▁मृतक	-8867
▁२०६८	-8868
नाइटेड	-8869
▁अनुगम	-8870
▁चीनमा	-8871
▁धमाधम	-8872
▁हरियो	-8873
▁ग्रन्थ	-8874
▁घोराही	-8875
▁तीनवटा	-8876
▁बैंकिङ	-8877
▁अफ्रिका	-8878
▁जनाउँदै	-8879
▁बहिनीको	-8880
▁हत्याको	-8881
▁अध्ययनले	-8882
▁अर्यालले	-8883
▁डिसेम्बर	-8884
▁निर्धारित	-8885
▁फर्कनुभएका	-8886
एँ	-8887
and	-8888
कीय	-8889
▁९८	-8890
ज्वल	-8891
रोटी	-8892
ल्ले	-8893
स्टा	-8894
▁दूत	-8895
▁मैन	-8896
▁रेड	-8897
▁विघ	-8898
क्षको	-8899
बाहिर	-8900
मूल्य	-8901
▁खाले	-8902
▁लेखी	-8903
▁शिशु	-8904
▁अर्कै	-8905
▁उर्जा	-8906
▁कोशिस	-8907
▁दिनका	-8908
▁नवराज	-8909
▁मास्क	-8910
▁यौनको	-8911
▁सकिएन	-8912
▁सङ्गठ	-8913
हिंसाको	-8914
▁एकैपटक	-8915
▁तस्करी	-8916
▁नेगीले	-8917
▁पटकपटक	-8918
▁ज्ञवाली	-8919
▁तीमध्ये	-8920
▁न्यूजको	-8921
▁निकालेको	-8922
▁प्राइभेट	-8923
▁सुत्केरी	-8924
▁सौन्दर्य	-8925
▁असन्तुष्ट	-8926
▁काठमाडाैं	-8927
▁क्षेत्रिय	-8928
▁प्रतिपक्ष	-8929
▁रोजगारीमा	-8930
▁संघसंस्था	-8931
▁छात्रवृत्ति	-8932
▁पुल्चोकदेखि	-8933
▁हिन्दूराज्य	-8934
▁कुपण्डोलसम्म	-8935
▁वक्तव्यमार्फत्	-8936
मोड	-8937
▁3.	-8938
▁5.	-8939
▁?”	-8940
ज्यू	-8941
परित	-8942
ब्या	-8943
माको	-8944
वरको	-8945
ीलाई	-8946
▁अटो	-8947
▁आति	-8948
▁घाम	-8949
▁बडा	-8950
▁शहा	-8951
डिङ्ग	-8952
मनोहर	-8953
▁ओभर०	-8954
▁औषधी	-8955
▁ज्वा	-8956
▁पितृ	-8957
▁बिघा	-8958
▁रारा	-8959
▁मसिहा	-8960
▁व्यहो	-8961
▁समापन	-8962
▁अधिवेश	-8963
▁टेलिभि	-8964
▁डिजिटल	-8965
▁बुझाउन	-8966
▁हैसियत	-8967
▁९फ्लाई	-8968
जम्काभेट	-8969
न्दर्भिक	-8970
▁गर्नुको	-8971
▁नेटवर्क	-8972
▁वेसीशहर	-8973
▁सडकखण्ड	-8974
▁कार्यकाल	-8975
▁तपाईसम्म	-8976
▁त्यसमाथि	-8977
▁राममनोहर	-8978
▁विद्रोही	-8979
▁रुपैयाँमा	-8980
▁व्यवसायको	-8981
▁कार्यसमिति	-8982
▁ल्याइदिएको	-8983
उप	-8984
मर	-8985
कली	-8986
भरे	-8987
▁4.	-8988
गंगा	-8989
धारी	-8990
सामु	-8991
▁चिउ	-8992
▁मौन	-8993
▁रिट	-8994
स्कृत	-8995
▁अनिल	-8996
▁गरौँ	-8997
▁ठाँउ	-8998
▁पालन	-8999
▁पोषण	-9000
▁फ्लो	-9001
▁सहुल	-9002
▁२००७	-9003
राखेका	-9004
स्वरूप	-9005
▁गर्भव	-9006
▁निश्च	-9007
▁बिष्ट	-9008
▁मिल्छ	-9009
▁सुनार	-9010
त्साहित	-9011
▁आयुक्त	-9012
▁दिलाउन	-9013
▁बाँच्न	-9014
▁बाँडफा	-9015
▁ब्यांक	-9016
▁निक्षेप	-9017
▁बेलायती	-9018
▁साँच्चै	-9019
▁मान्छेको	-9020
▁युरोपेली	-9021
▁शत्रुलाई	-9022
us	-9023
ूत	-9024
२९	-9025
गमन	-9026
▁गभ	-9027
अनशन	-9028
रहनु	-9029
लाका	-9030
ष्ठा	-9031
सम्प	-9032
्रोन	-9033
▁चम्	-9034
▁क्रे	-9035
▁ठप्प	-9036
▁नेप्	-9037
▁मोती	-9038
▁यज्ञ	-9039
▁यिनै	-9040
▁रोके	-9041
डेल्धु	-9042
ेश्वरी	-9043
▁घोषित	-9044
▁जोडेर	-9045
▁डेभलप	-9046
▁युनिभ	-9047
▁लिलाम	-9048
▁सकियो	-9049
▁विरामी	-9050
▁सारेको	-9051
▁हेर्दै	-9052
▁होटलमा	-9053
▁दिन्छन्	-9054
▁कूटनीतिक	-9055
▁प्रदेशकी	-9056
▁बिमस्टेक	-9057
▁समृद्धिका	-9058
▁हाराहारीमा	-9059
▁हुँदाहुँदै	-9060
▁कार्यदिशाको	-9061
▁कार्यपालिकाको	-9062
चै	-9063
ँदो	-9064
डिट	-9065
पाइ	-9066
बको	-9067
्रह	-9068
▁धो	-9069
आईएच	-9070
▁अनी	-9071
▁उका	-9072
▁कमै	-9073
▁खपत	-9074
▁जता	-9075
सत्ता	-9076
▁जलेर	-9077
▁बधाई	-9078
▁सम्ब	-9079
▁सिटी	-9080
▁होईन	-9081
▁उम्मे	-9082
▁चुरोट	-9083
▁छायाँ	-9084
▁ट्रेल	-9085
▁बलात्	-9086
▁बिचार	-9087
▁बुँदा	-9088
▁भवनमा	-9089
▁शहादत	-9090
▁शिविर	-9091
▁करोडको	-9092
▁कलेजमा	-9093
▁डिल्ली	-9094
▁धेरैको	-9095
▁माथिको	-9096
▁नारालाई	-9097
▁निशुल्क	-9098
▁पश्चिमी	-9099
▁राहदानी	-9100
▁लगाउँदै	-9101
▁लाग्छन्	-9102
▁निकाल्ने	-9103
▁समुदायमा	-9104
▁समेटिएको	-9105
▁गर्नेहरुको	-9106
▁मृत्युसम्म	-9107
फे	-9108
्‍	-9109
खमा	-9110
सबै	-9111
▁हस	-9112
पावर	-9113
्रेट	-9114
▁तौल	-9115
▁सता	-9116
▁सास	-9117
▁अर्ध	-9118
▁इरान	-9119
▁थिइन	-9120
▁नत्र	-9121
▁वकाल	-9122
▁सभ्य	-9123
ँदैनन्	-9124
▁कोषले	-9125
▁गरिदै	-9126
▁त्यहि	-9127
▁न्युन	-9128
▁पिडित	-9129
▁बढ्यो	-9130
▁अलमलमा	-9131
▁जोगाउन	-9132
▁ज्यादै	-9133
▁दुविधा	-9134
▁नीतिमा	-9135
▁भुकम्प	-9136
▁राजापा	-9137
▁विश्वा	-9138
▁सकिन्न	-9139
▁हदसम्म	-9140
पलाञ्चोक	-9141
▁थापालाई	-9142
▁पहिरोले	-9143
▁वितरणको	-9144
▁संसारको	-9145
▁समाजलाई	-9146
▁साझेदार	-9147
▁बहिनीलाई	-9148
▁मृत्युको	-9149
▁रिलेअनशन	-9150
▁नियन्त्रक	-9151
▁विश्वकर्मा	-9152
षक	-9153
२६	-9154
एकै	-9155
पदा	-9156
▁आजै	-9157
▁आलु	-9158
▁कठि	-9159
▁चाउ	-9160
▁याे	-9161
▁हस्	-9162
▁ऐनमा	-9163
▁ज्ये	-9164
▁टुंग	-9165
▁पाखा	-9166
▁बीपी	-9167
▁लेखे	-9168
लेश्वर	-9169
▁कायमै	-9170
▁गोल्ड	-9171
▁नामले	-9172
▁निकास	-9173
▁बढीको	-9174
▁बढेका	-9175
▁केहीको	-9176
▁गाउँले	-9177
▁जिज्ञा	-9178
▁परिकार	-9179
▁मोदीले	-9180
▁संसदले	-9181
▁सरसफाई	-9182
▁हुनेको	-9183
काठमाडौं	-9184
▁कोलम्बो	-9185
▁बहिनीले	-9186
▁समकालिन	-9187
▁समर्थनमा	-9188
▁समस्यामा	-9189
▁सुरक्षाका	-9190
▁पर्यटनन्यूज	-9191
▁व्यवस्थापनमा	-9192
ं४	-9193
च्	-9194
बज	-9195
४५	-9196
ँची	-9197
ोधन	-9198
▁ओग	-9199
▁७७	-9200
मोहन	-9201
सङ्ग	-9202
▁एड्	-9203
▁ठगी	-9204
▁पिप	-9205
डाँडा	-9206
प्रभु	-9207
हीँको	-9208
ालीले	-9209
▁असुर	-9210
▁चिनी	-9211
▁ढाँच	-9212
▁दूरस	-9213
▁२०१०	-9214
यात्मक	-9215
▁कटौती	-9216
▁गुटको	-9217
▁तपसील	-9218
▁निर्म	-9219
▁लाखौं	-9220
▁वैद्य	-9221
▁सुनाए	-9222
▁सुनेर	-9223
▁अन्यथा	-9224
▁गोल्छा	-9225
▁दिनअघि	-9226
▁दीपिका	-9227
▁पश्चात	-9228
▁भित्रै	-9229
▁मागलाई	-9230
हरूमध्ये	-9231
▁अाधारमा	-9232
▁टेलिफोन	-9233
▁देशभरका	-9234
▁परिभाषा	-9235
▁विभागमा	-9236
▁नोभेम्बर	-9237
▁चन्द्रागि	-9238
▁माओवादीको	-9239
▁ललितपुरको	-9240
▁संवाददाता	-9241
▁अत्यावश्यक	-9242
▁दुर्घटनापछि	-9243
▁विकृतिलगायतका	-9244
आत	-9245
५स	-9246
ंले	-9247
बिस	-9248
शित	-9249
गुरु	-9250
ग्लै	-9251
मध्य	-9252
▁युग	-9253
▁५ं४	-9254
जीकरण	-9255
सिएका	-9256
हुन्न	-9257
▁काजु	-9258
▁गोरु	-9259
▁ग्रह	-9260
▁तहीँ	-9261
▁सांग	-9262
मूर्ति	-9263
▁गभर्न	-9264
▁दिनुभ	-9265
▁नहुनु	-9266
▁रुपले	-9267
▁वकालत	-9268
▁सबैमा	-9269
नुपर्दा	-9270
▁अविकास	-9271
▁कमाएको	-9272
▁जहीँको	-9273
▁नपाइने	-9274
▁रोक्ने	-9275
▁हुन्थे	-9276
▁जापानको	-9277
▁बढाइएको	-9278
▁ब्राजिल	-9279
▁संस्कृत	-9280
▁स्रोतका	-9281
▁आउनुभएको	-9282
▁उत्तीर्ण	-9283
▁कार्यबार	-9284
▁भूमिकामा	-9285
▁सुवेदीले	-9286
▁पुर्याउने	-9287
▁प्रशासकीय	-9288
▁वेबसाइटमा	-9289
▁प्रदर्शनमा	-9290
▁प्रतिशतसम्म	-9291
▁गुल्मीमार्फत	-9292
▁महिलाहिंसाको	-9293
▁व्यवस्थापनको	-9294
▁कार्यान्वयनका	-9295
टिस	-9296
▁दय	-9297
▁८२	-9298
▁८६	-9299
आवास	-9300
जीको	-9301
ड्दा	-9302
म्ने	-9303
▁इञ्	-9304
▁चाै	-9305
▁बिब	-9306
▁अछाम	-9307
▁इटहर	-9308
▁उपवि	-9309
▁गहना	-9310
▁छोरो	-9311
▁व्यय	-9312
▁साटो	-9313
▁हुनै	-9314
▁जनचेत	-9315
▁जमुना	-9316
▁जीवित	-9317
▁थालनी	-9318
▁मेट्न	-9319
▁विनाश	-9320
▁सक्छु	-9321
▁खोजीमा	-9322
▁गुनासा	-9323
▁मिलाएर	-9324
▁डडेल्धु	-9325
▁दक्षिणी	-9326
▁दरबारमा	-9327
▁सुधारका	-9328
▁पाउनेछन्	-9329
▁बित्तिकै	-9330
▁अस्पतालले	-9331
▁गन्तव्यको	-9332
▁त्यहाँबाट	-9333
▁प्रतिशतको	-9334
▁कञ्चनपुरको	-9335
▁काठमाडौँमा	-9336
▁चाहनुहुन्छ	-9337
▁सेप्टेम्बर	-9338
▁सञ्चारकर्मी	-9339
▁पृथ्वीनारायण	-9340
ct	-9341
पछ	-9342
लम	-9343
ank	-9344
ebs	-9345
्छु	-9346
▁खल	-9347
▁झन	-9348
ङ्का	-9349
▁उर्	-9350
▁दृढ	-9351
कृपया	-9352
▁पाएँ	-9353
▁बुटव	-9354
▁महेश	-9355
▁मेची	-9356
▁रसाय	-9357
▁सिमि	-9358
▁अर्घा	-9359
▁उन्नत	-9360
▁कस्ता	-9361
▁गराएर	-9362
▁गान्ध	-9363
वाणिज्य	-9364
▁आराधना	-9365
▁कालिका	-9366
▁पेनाल्	-9367
▁बाजुरा	-9368
▁बिक्रि	-9369
▁लागतमा	-9370
▁विप्लव	-9371
▁आसपासका	-9372
▁नमिल्ने	-9373
▁बिहिबार	-9374
▁सत्तामा	-9375
▁अध्ययनरत	-9376
▁फेसबुकमा	-9377
▁राजधानीको	-9378
▁केन्द्रबाट	-9379
▁परिवर्तनको	-9380
▁जनस्वास्थ्य	-9381
▁बनाउनुपर्ने	-9382
▁प्रतिनिधिसभाको	-9383
्ठ	-9384
कवि	-9385
लता	-9386
▁उस	-9387
▁धू	-9388
▁८३	-9389
एकाे	-9390
चानक	-9391
दलीय	-9392
दिनू	-9393
याली	-9394
▁दास	-9395
▁फ्र	-9396
▁मरि	-9397
▁लुक	-9398
▁हिड	-9399
त्विक	-9400
▁अपमा	-9401
▁आराम	-9402
▁थ्री	-9403
▁पदका	-9404
▁पन्छ	-9405
▁पाहु	-9406
▁बन्छ	-9407
▁रोजी	-9408
स्कोटा	-9409
▁आईपुग	-9410
▁आगजनी	-9411
▁एकाएक	-9412
▁गडबढी	-9413
▁पर्यो	-9414
▁प्रवि	-9415
▁सतर्क	-9416
▁अपाङ्ग	-9417
▁उठाएको	-9418
▁एनआरएन	-9419
▁गरेपनि	-9420
▁नगर्नु	-9421
▁पुग्नु	-9422
▁बोकेका	-9423
▁मिलाउन	-9424
▁सोधिन्	-9425
▁जङ्गलमा	-9426
▁महाभारत	-9427
▁महिन्दा	-9428
▁लक्ष्मण	-9429
▁हामीसँग	-9430
▁परिवेशमा	-9431
▁दूरसञ्चार	-9432
▁बिहीबारको	-9433
▁भण्डारीको	-9434
▁सक्नुपर्छ	-9435
▁प्रतिशतभन्दा	-9436
▁प्रतिस्पर्धी	-9437
▁६७	-9438
▁६९	-9439
थोकी	-9440
प्पु	-9441
प्रो	-9442
याले	-9443
लान्	-9444
▁पढु	-9445
▁फुल	-9446
योजित	-9447
वासको	-9448
ेन्टी	-9449
▁उतार	-9450
▁क्लि	-9451
▁गरेँ	-9452
▁मेरी	-9453
▁रौनि	-9454
▁विद्	-9455
सहितका	-9456
▁तैपनि	-9457
▁अबस्था	-9458
▁गाउँको	-9459
▁बिर्ता	-9460
▁भुमिका	-9461
▁विन्दु	-9462
▁विपक्ष	-9463
▁हिमालय	-9464
▁हुनुको	-9465
▁आत्मसात	-9466
▁गर्भवती	-9467
▁ज्येष्ठ	-9468
▁दलहरूले	-9469
▁निकाल्न	-9470
▁भैसकेको	-9471
▁यिनीहरू	-9472
हरुद्वारा	-9473
▁गरिदिएको	-9474
▁नारायणगढ	-9475
▁पीडितलाई	-9476
▁बन्दरगाह	-9477
▁समस्याले	-9478
▁समाचारमा	-9479
▁सम्मेलनको	-9480
▁कार्यालयबाट	-9481
▁पूर्वराजाको	-9482
▁विश्वव्यापी	-9483
ik	-9484
भाब	-9485
्यौ	-9486
▁इफ	-9487
ठूला	-9488
हाल्	-9489
▁नजर	-9490
▁फौज	-9491
▁वता	-9492
▁१९६	-9493
gmail	-9494
म्पमा	-9495
विवाह	-9496
सभाको	-9497
्रोइड	-9498
▁इजला	-9499
▁उ्ठा	-9500
▁ज्यू	-9501
▁झगडा	-9502
▁दलीय	-9503
▁नगरे	-9504
▁नपढु	-9505
▁ब्रो	-9506
ebsite	-9507
्याएको	-9508
▁चलखेल	-9509
▁जितेर	-9510
▁तापनि	-9511
▁बिच्छ	-9512
▁भाग्य	-9513
▁मालिक	-9514
▁स्वाद	-9515
▁क्वाटर	-9516
▁गजलकार	-9517
▁गोकर्ण	-9518
▁फर्कने	-9519
▁स्वरूप	-9520
पीडितलाई	-9521
▁आइप्याड	-9522
▁आइरहेका	-9523
▁उ्ठाईको	-9524
▁लगायतको	-9525
▁समग्रमा	-9526
▁चाहानामा	-9527
▁निरीक्षण	-9528
▁युनाइटेड	-9529
▁शिक्षकको	-9530
▁कोइरालाको	-9531
▁महाभूकम्प	-9532
▁राम्रोसँग	-9533
▁स्वीकार्य	-9534
▁महावाणिज्य	-9535
▁सान्दर्भिक	-9536
▁अर्थतन्त्रको	-9537
▁च्याम्पियनसिप	-9538
अर	-9539
डल	-9540
भाई	-9541
▁ठग	-9542
▁भन	-9543
▁७९	-9544
iews	-9545
ment	-9546
काजी	-9547
पञ्च	-9548
म्बू	-9549
▁अाफ	-9550
▁आयू	-9551
▁एनस	-9552
▁जला	-9553
▁नहर	-9554
▁पढे	-9555
▁पद्	-9556
▁सदै	-9557
▁हेड	-9558
मेण्ट	-9559
▁इँटा	-9560
▁गुफा	-9561
▁पढेर	-9562
▁बिरा	-9563
▁अचानक	-9564
▁चिह्न	-9565
▁ध्रुव	-9566
▁बन्नु	-9567
▁सिकार	-9568
सम्पर्क	-9569
▁इमान्द	-9570
▁उडानमा	-9571
▁गर्नको	-9572
▁मधुमेह	-9573
▁सप्तरी	-9574
▁निहुँमा	-9575
▁पुरुषले	-9576
▁पौडेलको	-9577
▁मार्फत्	-9578
▁रौनियार	-9579
▁विस्फोट	-9580
▁शरीरलाई	-9581
▁सरस्वती	-9582
▁हेटौंडा	-9583
▁चाहन्छन्	-9584
▁डिस्प्ले	-9585
▁बर्खास्त	-9586
▁राजकुमार	-9587
▁समाधानका	-9588
▁ताप्लेजुङ	-9589
▁त्रैमासिक	-9590
▁स्थानीयको	-9591
▁अप्रत्यक्ष	-9592
▁सुन्दरताको	-9593
▁प्राधिकरणका	-9594
▁बालुवाटारको	-9595
▁प्रहरीद्वारा	-9596
▁पार्टीभित्रको	-9597
▁ग्य्राजुएटहरुको	-9598
बिच	-9599
राल	-9600
शेष	-9601
▁र्	-9602
▁सव	-9603
द्वि	-9604
न्दो	-9605
मेरो	-9606
विना	-9607
ाउदै	-9608
▁भेष	-9609
याएको	-9610
र्पोर	-9611
▁कुशल	-9612
▁गर्द	-9613
▁दारी	-9614
▁सिलव	-9615
श्चर्य	-9616
ुरेन्ट	-9617
▁कमाउन	-9618
▁देखाइ	-9619
▁नसकेर	-9620
▁बसन्त	-9621
▁बिरोध	-9622
▁मर्ने	-9623
▁लिँदै	-9624
▁शिक्ष	-9625
उनुभएको	-9626
▁आयोगमा	-9627
▁ईन्द्र	-9628
▁खातामा	-9629
▁गरीएको	-9630
▁टोलीमा	-9631
▁प्रमले	-9632
▁बोलाएर	-9633
▁कत्तिको	-9634
▁कारागार	-9635
▁गाविसको	-9636
▁जन्मेका	-9637
▁बार्षिक	-9638
▁सुनुवाई	-9639
▁महिनाअघि	-9640
▁सदस्यहरु	-9641
▁स्थापनाको	-9642
▁स्थापनामा	-9643
▁पश्चिमाञ्चल	-9644
▁पूर्वाधारका	-9645
▁गर्नुपर्नेमा	-9646
क्‍	-9647
ताल	-9648
रोग	-9649
वाङ	-9650
ुटो	-9651
ुरे	-9652
▁आद	-9653
▁लौ	-9654
काउन	-9655
मीको	-9656
सतमा	-9657
्याङ	-9658
▁कटु	-9659
▁गेट	-9660
▁चिन	-9661
▁काटि	-9662
▁गरेन	-9663
▁जाडो	-9664
▁ट्रक	-9665
▁पोशा	-9666
▁फैलि	-9667
▁रुपा	-9668
▁हरित	-9669
ंगीतिक	-9670
समध्ये	-9671
▁अनौठो	-9672
▁कामले	-9673
▁छेउमा	-9674
▁बचाउन	-9675
▁ब्राह	-9676
▁रहेकी	-9677
▁रेलको	-9678
▁हल्का	-9679
▁आजसम्म	-9680
▁एजेन्ट	-9681
▁खुलासा	-9682
▁तामाको	-9683
▁तिर्खा	-9684
▁दोब्बर	-9685
▁भेदभाव	-9686
▁सक्दिन	-9687
▁आईरहेको	-9688
▁कार्यको	-9689
▁ट्रान्स	-9690
▁नामावली	-9691
▁फैलाउने	-9692
▁लाग्थ्यो	-9693
▁अनौपचारिक	-9694
▁जबर्जस्ती	-9695
▁महिनादेखि	-9696
▁मेलम्चीको	-9697
▁बालुवाटारमा	-9698
▁उपराष्ट्रपति	-9699
ow	-9700
▁v	-9701
वधि	-9702
न्दन	-9703
सनमा	-9704
ानको	-9705
▁इम्	-9706
▁उमा	-9707
▁उही	-9708
▁एकअ	-9709
▁दुब	-9710
▁बहन	-9711
▁शार	-9712
गिफ्ट	-9713
न्नति	-9714
फ्रेश	-9715
▁अफिस	-9716
▁ऐनको	-9717
▁सङ्क	-9718
▁नदेखि	-9719
▁बस्नु	-9720
▁लोडसे	-9721
सङ्ख्या	-9722
्नुहोस्	-9723
▁कर्पोर	-9724
▁कुटपिट	-9725
▁खान्नँ	-9726
▁दिनहुँ	-9727
▁पैसाको	-9728
▁शरीरको	-9729
▁गर्नुका	-9730
▁गुमाएका	-9731
▁नसकेपछि	-9732
▁पाउँछन्	-9733
▁प्रमलाई	-9734
▁बोर्डको	-9735
▁भारतसँग	-9736
▁विभाजित	-9737
▁परमेश्वर	-9738
▁सांगीतिक	-9739
▁बाँडिदिनू	-9740
▁श्रीकृष्ण	-9741
▁साइतभन्दा	-9742
▁वडाअध्यक्ष	-9743
▁काठमाडौँबाट	-9744
▁बुद्धमूर्ति	-9745
▁भक्कानिन्छन्	-9746
धनी	-9747
पाठ	-9748
िकै	-9749
▁नह	-9750
▁६६	-9751
▁९३	-9752
ंखला	-9753
पनको	-9754
रहेछ	-9755
▁उसै	-9756
▁एपी	-9757
▁चाइ	-9758
▁दाम	-9759
▁साग	-9760
▁साध	-9761
करणको	-9762
न्दैन	-9763
न्मुख	-9764
वासले	-9765
▁खोल्	-9766
▁गहुँ	-9767
▁पाटो	-9768
▁बीबी	-9769
▁राजन	-9770
▁स्वि	-9771
द्र्धन	-9772
▁एन्फा	-9773
▁बेच्न	-9774
▁सिमित	-9775
्नुपर्छ	-9776
▁ग्लोबल	-9777
▁टाइम्स	-9778
▁प्रसंग	-9779
▁बढ्नेछ	-9780
▁हिल्सा	-9781
▁हेलिको	-9782
▁भईरहेको	-9783
▁वर्षयता	-9784
▁वीरगञ्ज	-9785
▁सहमतिमा	-9786
▁हिँडेको	-9787
▁किसानलाई	-9788
▁प्रख्यात	-9789
▁विश्वस्त	-9790
▁जानुपर्ने	-9791
▁माल्दिभ्स	-9792
▁दृष्टिकोणले	-9793
▁महानिरीक्षक	-9794
▁लोकतन्त्रको	-9795
▁अन्तरराष्ट्रिय	-9796
िङ	-9797
ंदो	-9798
मिन	-9799
लाय	-9800
▁मठ	-9801
▁९९	-9802
ख्खल	-9803
ट्ने	-9804
पारी	-9805
ारुढ	-9806
्युट	-9807
▁थप्	-9808
▁दमक	-9809
▁दाउ	-9810
▁बसे	-9811
▁मनु	-9812
▁विर	-9813
▁शरि	-9814
ण्डमा	-9815
बुद्ध	-9816
यत्री	-9817
▁घुमा	-9818
▁दीपा	-9819
▁निजि	-9820
▁वाग्	-9821
▁सोला	-9822
▁आउँदै	-9823
▁ड्रोन	-9824
▁दख्खल	-9825
▁पुत्र	-9826
▁राईको	-9827
प्ताहिक	-9828
▁गतेबाट	-9829
▁धर्मको	-9830
▁पाँचथर	-9831
▁सोमवार	-9832
▁प्रकृया	-9833
▁रिफ्रेश	-9834
▁प्रकारले	-9835
▁सङ्घीयता	-9836
▁जनसङ्ख्या	-9837
▁नेपालीहरु	-9838
▁यिनीहरूको	-9839
▁लेख्नुहोस	-9840
▁विस्तारमा	-9841
▁सञ्चालनका	-9842
▁सवारीसाधन	-9843
00	-9844
पट	-9845
लन	-9846
गाड	-9847
दशी	-9848
▁घन	-9849
bout	-9850
मैले	-9851
वायु	-9852
श्मा	-9853
स्मा	-9854
ानले	-9855
▁	-9856
ा	-9857
्	-9858
र	-9859
न	-9860
क	-9861
ि	-9862
े	-9863
म	-9864
स	-9865
ल	-9866
ो	-9867
त	-9868
प	-9869
य	-9870
ु	-9871
ह	-9872
ी	-9873
ग	-9874
व	-9875
द	-9876
ब	-9877
ज	-9878
भ	-9879
।	-9880
ट	-9881
छ	-9882
ए	-9883
ै	-9884
श	-9885
अ	-9886
उ	-9887
च	-9888
ध	-9889
थ	-9890
ष	-9891
ख	-9892
,	-9893
ड	-9894
ं	-9895
आ	-9896
ँ	-9897
ण	-9898
ई	-9899
ू	-9900
फ	-9901
.	-9902
इ	-9903
ठ	-9904
ौ	-9905
घ	-9906
२	-9907
१	-9908
०	-9909
ृ	-9910
ढ	-9911
ङ	-9912
५	-9913
७	-9914
झ	-9915
ञ	-9916
३	-9917
४	-9918
‘	-9919
६	-9920
’	-9921
–	-9922
)	-9923
(	-9924
८	-9925
९	-9926
ओ	-9927
|	-9928
-	-9929
e	-9930
a	-9931
?	-9932
/	-9933
o	-9934
औ	-9935
i	-9936
n	-9937
r	-9938
'	-9939
:	-9940
t	-9941
!	-9942
ः	-9943
‍	-9944
s	-9945
“	-9946
”	-9947
l	-9948
m	-9949
1	-9950
d	-9951
ऐ	-9952
p	-9953
u	-9954
h	-9955
c	-9956
4	-9957
[	-9958
]	-9959
7	-9960
"	-9961
0	-9962
g	-9963
ऊ	-9964
b	-9965
y	-9966
w	-9967
¥	-9968
—	-9969
5	-9970
8	-9971
k	-9972
ऋ	-9973
2	-9974
R	-9975
S	-9976
÷	-9977
v	-9978
f	-9979
»	-9980
A	-9981
N	-9982
T	-9983
C	-9984
6	-9985
P	-9986
M	-9987
+	-9988
3	-9989
I	-9990
B	-9991
D	-9992
о	-9993
;	-9994
j	-9995
H	-9996
